<|pad|>	0
<|unk|>	0
<|bos|>	0
<|eos|>	0
<|system|>	0
<|user|>	0
<|assistant|>	0
<|tool_schema|>	0
<|tool_call|>	0
<|tool_result|>	0
<|json|>	0
<|end|>	0
<|endoftext|>	0
<0x00>	0
<0x01>	0
<0x02>	0
<0x03>	0
<0x04>	0
<0x05>	0
<0x06>	0
<0x07>	0
<0x08>	0
<0x09>	0
<0x0A>	0
<0x0B>	0
<0x0C>	0
<0x0D>	0
<0x0E>	0
<0x0F>	0
<0x10>	0
<0x11>	0
<0x12>	0
<0x13>	0
<0x14>	0
<0x15>	0
<0x16>	0
<0x17>	0
<0x18>	0
<0x19>	0
<0x1A>	0
<0x1B>	0
<0x1C>	0
<0x1D>	0
<0x1E>	0
<0x1F>	0
<0x20>	0
<0x21>	0
<0x22>	0
<0x23>	0
<0x24>	0
<0x25>	0
<0x26>	0
<0x27>	0
<0x28>	0
<0x29>	0
<0x2A>	0
<0x2B>	0
<0x2C>	0
<0x2D>	0
<0x2E>	0
<0x2F>	0
<0x30>	0
<0x31>	0
<0x32>	0
<0x33>	0
<0x34>	0
<0x35>	0
<0x36>	0
<0x37>	0
<0x38>	0
<0x39>	0
<0x3A>	0
<0x3B>	0
<0x3C>	0
<0x3D>	0
<0x3E>	0
<0x3F>	0
<0x40>	0
<0x41>	0
<0x42>	0
<0x43>	0
<0x44>	0
<0x45>	0
<0x46>	0
<0x47>	0
<0x48>	0
<0x49>	0
<0x4A>	0
<0x4B>	0
<0x4C>	0
<0x4D>	0
<0x4E>	0
<0x4F>	0
<0x50>	0
<0x51>	0
<0x52>	0
<0x53>	0
<0x54>	0
<0x55>	0
<0x56>	0
<0x57>	0
<0x58>	0
<0x59>	0
<0x5A>	0
<0x5B>	0
<0x5C>	0
<0x5D>	0
<0x5E>	0
<0x5F>	0
<0x60>	0
<0x61>	0
<0x62>	0
<0x63>	0
<0x64>	0
<0x65>	0
<0x66>	0
<0x67>	0
<0x68>	0
<0x69>	0
<0x6A>	0
<0x6B>	0
<0x6C>	0
<0x6D>	0
<0x6E>	0
<0x6F>	0
<0x70>	0
<0x71>	0
<0x72>	0
<0x73>	0
<0x74>	0
<0x75>	0
<0x76>	0
<0x77>	0
<0x78>	0
<0x79>	0
<0x7A>	0
<0x7B>	0
<0x7C>	0
<0x7D>	0
<0x7E>	0
<0x7F>	0
<0x80>	0
<0x81>	0
<0x82>	0
<0x83>	0
<0x84>	0
<0x85>	0
<0x86>	0
<0x87>	0
<0x88>	0
<0x89>	0
<0x8A>	0
<0x8B>	0
<0x8C>	0
<0x8D>	0
<0x8E>	0
<0x8F>	0
<0x90>	0
<0x91>	0
<0x92>	0
<0x93>	0
<0x94>	0
<0x95>	0
<0x96>	0
<0x97>	0
<0x98>	0
<0x99>	0
<0x9A>	0
<0x9B>	0
<0x9C>	0
<0x9D>	0
<0x9E>	0
<0x9F>	0
<0xA0>	0
<0xA1>	0
<0xA2>	0
<0xA3>	0
<0xA4>	0
<0xA5>	0
<0xA6>	0
<0xA7>	0
<0xA8>	0
<0xA9>	0
<0xAA>	0
<0xAB>	0
<0xAC>	0
<0xAD>	0
<0xAE>	0
<0xAF>	0
<0xB0>	0
<0xB1>	0
<0xB2>	0
<0xB3>	0
<0xB4>	0
<0xB5>	0
<0xB6>	0
<0xB7>	0
<0xB8>	0
<0xB9>	0
<0xBA>	0
<0xBB>	0
<0xBC>	0
<0xBD>	0
<0xBE>	0
<0xBF>	0
<0xC0>	0
<0xC1>	0
<0xC2>	0
<0xC3>	0
<0xC4>	0
<0xC5>	0
<0xC6>	0
<0xC7>	0
<0xC8>	0
<0xC9>	0
<0xCA>	0
<0xCB>	0
<0xCC>	0
<0xCD>	0
<0xCE>	0
<0xCF>	0
<0xD0>	0
<0xD1>	0
<0xD2>	0
<0xD3>	0
<0xD4>	0
<0xD5>	0
<0xD6>	0
<0xD7>	0
<0xD8>	0
<0xD9>	0
<0xDA>	0
<0xDB>	0
<0xDC>	0
<0xDD>	0
<0xDE>	0
<0xDF>	0
<0xE0>	0
<0xE1>	0
<0xE2>	0
<0xE3>	0
<0xE4>	0
<0xE5>	0
<0xE6>	0
<0xE7>	0
<0xE8>	0
<0xE9>	0
<0xEA>	0
<0xEB>	0
<0xEC>	0
<0xED>	0
<0xEE>	0
<0xEF>	0
<0xF0>	0
<0xF1>	0
<0xF2>	0
<0xF3>	0
<0xF4>	0
<0xF5>	0
<0xF6>	0
<0xF7>	0
<0xF8>	0
<0xF9>	0
<0xFA>	0
<0xFB>	0
<0xFC>	0
<0xFD>	0
<0xFE>	0
<0xFF>	0
▁▁	-0
▁▁▁▁	-1
▁t	-2
▁▁▁▁▁▁▁▁	-3
in	-4
he	-5
on	-6
re	-7
▁a	-8
er	-9
at	-10
es	-11
en	-12
▁s	-13
▁the	-14
or	-15
ion	-16
is	-17
":	-18
▁c	-19
▁o	-20
al	-21
ar	-22
it	-23
▁f	-24
an	-25
ing	-26
▁p	-27
ed	-28
▁w	-29
▁d	-30
ro	-31
ent	-32
▁in	-33
et	-34
▁b	-35
ic	-36
▁an	-37
▁of	-38
el	-39
as	-40
ou	-41
▁m	-42
am	-43
le	-44
▁to	-45
▁"	-46
st	-47
ct	-48
▁re	-49
▁and	-50
pe	-51
",	-52
il	-53
ri	-54
om	-55
▁n	-56
{"	-57
▁▁▁▁▁▁▁▁▁▁▁▁▁▁▁▁	-58
pt	-59
":"	-60
▁th	-61
▁h	-62
id	-63
▁e	-64
ation	-65
ype	-66
▁l	-67
▁T	-68
se	-69
qu	-70
im	-71
ut	-72
ol	-73
▁▁▁▁▁▁▁▁▁▁▁▁	-74
ption	-75
","	-76
ce	-77
ers	-78
ch	-79
▁-	-80
ul	-81
ur	-82
▁is	-83
▁for	-84
ad	-85
ve	-86
ame	-87
um	-88
od	-89
▁▁▁▁▁▁▁▁▁▁	-90
ot	-91
▁A	-92
cri	-93
ate	-94
▁st	-95
▁g	-96
escri	-97
▁u	-98
ag	-99
▁S	-100
if	-101
▁I	-102
escription	-103
ect	-104
ents	-105
▁'	-106
ig	-107
▁be	-108
est	-109
":{"	-110
type	-111
▁=	-112
ra	-113
ly	-114
▁C	-115
ow	-116
em	-117
elf	-118
▁▁▁▁▁▁	-119
red	-120
▁con	-121
ist	-122
▁that	-123
▁on	-124
ir	-125
▁The	-126
▁{"	-127
▁pro	-128
},	-129
▁de	-130
ay	-131
ort	-132
▁(	-133
per	-134
pl	-135
▁y	-136
che	-137
▁v	-138
com	-139
ith	-140
ies	-141
ring	-142
▁as	-143
ess	-144
de	-145
name	-146
ter	-147
▁1	-148
ab	-149
res	-150
pon	-151
ult	-152
oc	-153
▁ex	-154
▁M	-155
▁al	-156
our	-157
ver	-158
▁or	-159
un	-160
▁P	-161
ject	-162
▁with	-163
rom	-164
us	-165
▁it	-166
nt	-167
00	-168
ue	-169
▁are	-170
qui	-171
ity	-172
},"	-173
end	-174
par	-175
▁D	-176
ma	-177
port	-178
her	-179
ex	-180
▁wh	-181
up	-182
▁description	-183
all	-184
ke	-185
▁from	-186
▁self	-187
ac	-188
▁F	-189
quired	-190
op	-191
▁type	-192
amet	-193
ds	-194
th	-195
age	-196
▁B	-197
▁H	-198
▁R	-199
▁N	-200
description	-201
ref	-202
ameters	-203
▁W	-204
bject	-205
iv	-206
arg	-207
▁#	-208
os	-209
▁by	-210
to	-211
▁2	-212
ill	-213
ive	-214
▁com	-215
▁he	-216
ore	-217
ht	-218
og	-219
ass	-220
and	-221
▁E	-222
art	-223
fi	-224
pro	-225
ew	-226
ment	-227
▁$	-228
):	-229
▁we	-230
ain	-231
▁can	-232
ath	-233
▁not	-234
▁at	-235
ap	-236
▁G	-237
▁res	-238
--	-239
parameters	-240
ant	-241
▁L	-242
nd	-243
ld	-244
ponents	-245
▁im	-246
#/	-247
',	-248
fa	-249
ip	-250
components	-251
":[	-252
▁us	-253
▁O	-254
▁ch	-255
▁su	-256
ang	-257
]}	-258
pert	-259
string	-260
required	-261
out	-262
ode	-263
ail	-264
▁r	-265
▁se	-266
▁cont	-267
▁you	-268
ial	-269
ime	-270
▁if	-271
orm	-272
self	-273
cl	-274
ine	-275
▁this	-276
int	-277
urn	-278
"},"	-279
ave	-280
▁tr	-281
ated	-282
"}	-283
ure	-284
iz	-285
ks	-286
arch	-287
▁was	-288
ction	-289
able	-290
one	-291
▁def	-292
▁all	-293
ost	-294
▁sh	-295
ust	-296
ens	-297
ev	-298
perties	-299
.",	-300
ud	-301
cc	-302
ery	-303
iss	-304
fault	-305
▁ret	-306
▁U	-307
ount	-308
ical	-309
▁▁▁▁▁▁▁▁▁▁▁▁▁▁	-310
ert	-311
▁ab	-312
uments	-313
▁ap	-314
▁In	-315
roup	-316
▁string	-317
▁have	-318
▁[	-319
con	-320
),	-321
ich	-322
ext	-323
▁en	-324
▁cl	-325
▁ar	-326
ice	-327
▁le	-328
ould	-329
ast	-330
▁name	-331
ata	-332
ance	-333
▁<	-334
ff	-335
form	-336
ans	-337
ions	-338
ther	-339
du	-340
ber	-341
oo	-342
read	-343
ide	-344
ple	-345
▁ad	-346
ations	-347
pec	-348
ack	-349
object	-350
▁return	-351
ory	-352
ell	-353
miss	-354
ind	-355
ary	-356
ase	-357
▁wor	-358
arguments	-359
""	-360
▁Th	-361
▁pl	-362
path	-363
elds	-364
▁whe	-365
put	-366
ug	-367
▁which	-368
mas	-369
str	-370
act	-371
':	-372
cis	-373
sche	-374
so	-375
ib	-376
20	-377
▁sche	-378
ight	-379
ign	-380
▁un	-381
heet	-382
fil	-383
()	-384
▁k	-385
cre	-386
__	-387
▁will	-388
quest	-389
The	-390
schemas	-391
ress	-392
▁ma	-393
ren	-394
call	-395
▁ne	-396
ile	-397
ub	-398
lo	-399
##	-400
fields	-401
▁J	-402
alue	-403
query	-404
sheet	-405
▁j	-406
▁schema	-407
ard	-408
▁3	-409
are	-410
"}},"	-411
ource	-412
ong	-413
▁their	-414
ry	-415
ild	-416
tas	-417
ft	-418
te	-419
get	-420
▁your	-421
▁has	-422
cision	-423
▁"#/	-424
av	-425
ous	-426
).	-427
tern	-428
ia	-429
▁more	-430
":["	-431
▁ev	-432
▁dis	-433
erv	-434
ph	-435
▁import	-436
ication	-437
ual	-438
ord	-439
tool	-440
▁'#/	-441
properties	-442
ror	-443
ear	-444
ition	-445
==	-446
ome	-447
code	-448
key	-449
▁do	-450
▁per	-451
ces	-452
missing	-453
]}}	-454
ms	-455
date	-456
▁they	-457
ck	-458
▁el	-459
decision	-460
ite	-461
row	-462
":[]}	-463
"]}}	-464
vel	-465
ove	-466
▁spec	-467
ence	-468
ient	-469
----	-470
default	-471
▁out	-472
ps	-473
ates	-474
ict	-475
ach	-476
▁other	-477
search	-478
▁man	-479
▁about	-480
</	-481
('	-482
▁num	-483
fe	-484
▁me	-485
▁one	-486
▁This	-487
▁V	-488
▁form	-489
file	-490
ater	-491
low	-492
▁“	-493
▁0	-494
▁but	-495
sh	-496
▁ass	-497
▁object	-498
▁sy	-499
email	-500
▁"""	-501
cess	-502
ied	-503
cal	-504
king	-505
01	-506
▁go	-507
ace	-508
▁par	-509
iew	-510
▁true	-511
//	-512
▁ag	-513
alse	-514
▁▁▁▁▁▁▁▁▁	-515
uth	-516
▁St	-517
ample	-518
▁sp	-519
ric	-520
ose	-521
▁also	-522
ire	-523
')	-524
▁so	-525
/{	-526
▁were	-527
ings	-528
▁K	-529
▁part	-530
▁`	-531
▁ro	-532
▁time	-533
▁test	-534
ems	-535
ely	-536
▁appl	-537
▁required	-538
ound	-539
ors	-540
eld	-541
▁use	-542
ray	-543
eth	-544
▁It	-545
▁comm	-546
▁up	-547
und	-548
time	-549
son	-550
._	-551
▁19	-552
rent	-553
▁into	-554
own	-555
group	-556
▁respon	-557
reat	-558
itle	-559
▁when	-560
▁get	-561
use	-562
igh	-563
qual	-564
ep	-565
tt	-566
by	-567
▁acc	-568
list	-569
}/	-570
▁set	-571
ish	-572
reg	-573
▁col	-574
▁Y	-575
▁id	-576
ak	-577
der	-578
we	-579
Ex	-580
ree	-581
▁add	-582
▁may	-583
..	-584
))	-585
event	-586
0,	-587
ize	-588
▁specif	-589
▁list	-590
▁content	-591
▁conf	-592
ody	-593
▁new	-594
▁who	-595
ults	-596
mail	-597
ock	-598
ger	-599
Id	-600
▁Ch	-601
▁te	-602
▁data	-603
▁stud	-604
ll	-605
▁pe	-606
ob	-607
ception	-608
▁4	-609
▁number	-610
odel	-611
ook	-612
pos	-613
▁than	-614
rib	-615
ange	-616
oint	-617
atus	-618
ays	-619
nder	-620
irst	-621
▁year	-622
ener	-623
▁li	-624
▁value	-625
▁5	-626
set	-627
ool	-628
▁prov	-629
▁only	-630
▁incl	-631
://	-632
▁used	-633
rit	-634
sp	-635
],	-636
▁pre	-637
assert	-638
ull	-639
start	-640
▁option	-641
In	-642
▁his	-643
▁oper	-644
▁fil	-645
▁its	-646
endar	-647
files	-648
"}}	-649
olog	-650
day	-651
rue	-652
▁been	-653
10	-654
▁If	-655
ari	-656
▁over	-657
ield	-658
▁De	-659
val	-660
ise	-661
ge	-662
rig	-663
ues	-664
ca	-665
▁email	-666
formation	-667
ER	-668
▁am	-669
arn	-670
Re	-671
li	-672
ities	-673
-0	-674
▁sub	-675
▁{	-676
ses	-677
ont	-678
▁some	-679
les	-680
ete	-681
▁them	-682
json	-683
aw	-684
calendar	-685
▁any	-686
atch	-687
▁application	-688
essage	-689
▁request	-690
▁dif	-691
ople	-692
oin	-693
min	-694
▁x	-695
▁class	-696
task	-697
▁act	-698
ww	-699
raph	-700
▁properties	-701
▁kn	-702
ov	-703
▁att	-704
ys	-705
▁sc	-706
▁rec	-707
ood	-708
####	-709
▁bet	-710
▁+	-711
roug	-712
Res	-713
▁under	-714
▁reg	-715
▁cons	-716
▁None	-717
1,	-718
▁%	-719
readsheet	-720
ian	-721
IN	-722
▁fol	-723
▁Re	-724
▁there	-725
ken	-726
▁these	-727
ally	-728
"},	-729
gr	-730
St	-731
ribut	-732
tasks	-733
▁path	-734
pect	-735
▁need	-736
mer	-737
▁tw	-738
▁ra	-739
create	-740
oug	-741
ie	-742
▁no	-743
ork	-744
imit	-745
▁comp	-746
ru	-747
▁how	-748
▁rel	-749
▁int	-750
ON	-751
error	-752
▁che	-753
ating	-754
cy	-755
▁ind	-756
▁Un	-757
yp	-758
ss	-759
▁inte	-760
view	-761
▁first	-762
app	-763
▁example	-764
▁exp	-765
plo	-766
▁produ	-767
26	-768
Of	-769
▁should	-770
eng	-771
▁Se	-772
line	-773
▁people	-774
Pro	-775
PI	-776
▁using	-777
▁*	-778
alth	-779
ased	-780
▁_	-781
▁report	-782
▁work	-783
▁sup	-784
▁ca	-785
▁our	-786
test	-787
doc	-788
ark	-789
▁information	-790
▁most	-791
▁cre	-792
ateg	-793
▁val	-794
ask	-795
▁hel	-796
ages	-797
:00	-798
("	-799
▁des	-800
ake	-801
▁would	-802
pri	-803
▁such	-804
ubl	-805
rough	-806
ection	-807
▁had	-808
['	-809
▁fe	-810
ser	-811
ular	-812
▁Wh	-813
ments	-814
ative	-815
▁det	-816
▁For	-817
ix	-818
▁tra	-819
ade	-820
ics	-821
']	-822
▁high	-823
ersion	-824
ink	-825
py	-826
enses	-827
cept	-828
fter	-829
====	-830
very	-831
▁inst	-832
▁ph	-833
ility	-834
-1	-835
▁bu	-836
▁child	-837
rror	-838
ced	-839
ffect	-840
ne	-841
▁He	-842
title	-843
att	-844
ible	-845
greg	-846
ority	-847
auth	-848
ful	-849
ures	-850
▁min	-851
▁call	-852
▁query	-853
ational	-854
ude	-855
cur	-856
7-	-857
als	-858
▁what	-859
▁pol	-860
ethod	-861
▁two	-862
ination	-863
▁pr	-864
▁ac	-865
▁pos	-866
ick	-867
ogle	-868
▁false	-869
▁allOf	-870
▁sa	-871
▁loc	-872
its	-873
right	-874
raft	-875
ices	-876
▁through	-877
Error	-878
ccess	-879
unction	-880
▁file	-881
▁off	-882
▁format	-883
▁group	-884
▁giv	-885
▁cur	-886
▁An	-887
▁trans	-888
▁==	-889
▁next	-890
▁Pro	-891
▁201	-892
AT	-893
hen	-894
▁op	-895
▁key	-896
que	-897
ervice	-898
oth	-899
inal	-900
ature	-901
stem	-902
▁diffe	-903
Exception	-904
▁|	-905
ches	-906
oci	-907
▁optional	-908
▁ent	-909
velop	-910
▁/	-911
ement	-912
▁many	-913
▁inf	-914
co	-915
▁inv	-916
round	-917
▁end	-918
▁help	-919
--------	-920
▁read	-921
▁We	-922
ween	-923
▁sum	-924
2,	-925
▁project	-926
ship	-927
ract	-928
▁em	-929
ower	-930
▁6	-931
")	-932
-07-	-933
ids	-934
ml	-935
▁count	-936
▁where	-937
ines	-938
▁bl	-939
▁my	-940
oogle	-941
2026	-942
gan	-943
uring	-944
▁like	-945
":"2026	-946
":"2026-07-	-947
▁operation	-948
ble	-949
spreadsheet	-950
▁develop	-951
▁inter	-952
ons	-953
ious	-954
old	-955
▁200	-956
ense	-957
.0	-958
ier	-959
▁array	-960
ific	-961
exp	-962
▁between	-963
ann	-964
ins	-965
▁parameters	-966
▁make	-967
RE	-968
▁:	-969
▁htt	-970
▁ext	-971
resent	-972
irect	-973
▁ID	-974
▁ident	-975
ten	-976
su	-977
ough	-978
▁dist	-979
icro	-980
wn	-981
anges	-982
cont	-983
▁co	-984
▁must	-985
▁fl	-986
irm	-987
▁years	-988
▁gener	-989
cause	-990
▁[{"	-991
▁Al	-992
ength	-993
arget	-994
▁str	-995
ife	-996
▁items	-997
▁–	-998
erm	-999
met	-1000
respon	-1001
work	-1002
fig	-1003
ists	-1004
ng	-1005
▁sur	-1006
▁each	-1007
ants	-1008
30	-1009
▁see	-1010
ST	-1011
Equal	-1012
▁includ	-1013
status	-1014
▁provid	-1015
ator	-1016
url	-1017
ames	-1018
ution	-1019
rec	-1020
uc	-1021
ting	-1022
ags	-1023
▁long	-1024
▁ob	-1025
▁user	-1026
max	-1027
▁sm	-1028
▁task	-1029
▁given	-1030
="	-1031
▁well	-1032
▁qu	-1033
led	-1034
mit	-1035
ized	-1036
ef	-1037
add	-1038
ax	-1039
AR	-1040
▁review	-1041
other	-1042
ote	-1043
iron	-1044
[0	-1045
vent	-1046
pd	-1047
▁then	-1048
▁HR	-1049
priority	-1050
ternship	-1051
▁could	-1052
cent	-1053
▁max	-1054
])	-1055
▁check	-1056
aggreg	-1057
data	-1058
▁found	-1059
EN	-1060
▁pat	-1061
ploy	-1062
▁pers	-1063
▁Com	-1064
▁after	-1065
▁av	-1066
ily	-1067
Con	-1068
▁water	-1069
ern	-1070
zon	-1071
▁follow	-1072
▁else	-1073
▁sim	-1074
oud	-1075
▁health	-1076
any	-1077
▁Ex	-1078
▁response	-1079
ument	-1080
ters	-1081
▁event	-1082
ams	-1083
▁vari	-1084
Am	-1085
io	-1086
▁start	-1087
me	-1088
▁Default	-1089
▁sign	-1090
ually	-1091
▁med	-1092
ases	-1093
ategory	-1094
▁car	-1095
ience	-1096
▁pass	-1097
▁ed	-1098
000	-1099
16	-1100
▁state	-1101
▁result	-1102
be	-1103
.,	-1104
mary	-1105
▁process	-1106
▁You	-1107
▁different	-1108
ural	-1109
hed	-1110
args	-1111
bers	-1112
ets	-1113
ential	-1114
▁pri	-1115
"}}},	-1116
▁know	-1117
48	-1118
▁results	-1119
▁met	-1120
angu	-1121
ically	-1122
▁same	-1123
sv	-1124
▁support	-1125
▁ser	-1126
Amz	-1127
ology	-1128
chn	-1129
vern	-1130
chool	-1131
uch	-1132
▁does	-1133
ID	-1134
▁system	-1135
▁del	-1136
▁because	-1137
='	-1138
True	-1139
▁As	-1140
ands	-1141
▁publ	-1142
viron	-1143
pr	-1144
assertEqual	-1145
▁confirm	-1146
dex	-1147
plete	-1148
11	-1149
ever	-1150
▁contain	-1151
▁18	-1152
▁her	-1153
ache	-1154
▁files	-1155
▁di	-1156
▁How	-1157
▁assert	-1158
ED	-1159
ule	-1160
arent	-1161
move	-1162
meric	-1163
graph	-1164
▁Res	-1165
Name	-1166
200	-1167
▁just	-1168
output	-1169
▁model	-1170
▁8	-1171
inst	-1172
▁10	-1173
▁cent	-1174
▁bel	-1175
▁mod	-1176
ypes	-1177
▁art	-1178
▁being	-1179
▁larg	-1180
▁default	-1181
▁back	-1182
fore	-1183
ify	-1184
ources	-1185
3,	-1186
▁field	-1187
▁head	-1188
▁Ar	-1189
user	-1190
▁7	-1191
▁learn	-1192
filter	-1193
▁API	-1194
▁amount	-1195
▁find	-1196
▁text	-1197
ique	-1198
▁even	-1199
init	-1200
docs	-1201
ivers	-1202
▁code	-1203
rence	-1204
rest	-1205
htt	-1206
▁level	-1207
ization	-1208
AL	-1209
▁mon	-1210
▁effect	-1211
▁method	-1212
update	-1213
▁way	-1214
lean	-1215
5,	-1216
▁cor	-1217
List	-1218
IT	-1219
value	-1220
▁function	-1221
Type	-1222
rol	-1223
ries	-1224
▁incre	-1225
▁fact	-1226
▁hum	-1227
ute	-1228
ars	-1229
▁▁▁▁▁	-1230
▁gr	-1231
oun	-1232
ism	-1233
▁specified	-1234
▁sk	-1235
▁very	-1236
ples	-1237
pdf	-1238
pend	-1239
count	-1240
reate	-1241
12	-1242
OR	-1243
erg	-1244
▁those	-1245
▁emails	-1246
els	-1247
num	-1248
▁Americ	-1249
▁every	-1250
rs	-1251
None	-1252
▁world	-1253
ctions	-1254
imum	-1255
message	-1256
▁rep	-1257
export	-1258
ety	-1259
▁20	-1260
▁partic	-1261
▁own	-1262
air	-1263
▁dev	-1264
▁expl	-1265
ash	-1266
soft	-1267
."	-1268
To	-1269
▁Mon	-1270
fo	-1271
ited	-1272
rows	-1273
perty	-1274
imes	-1275
archive	-1276
▁point	-1277
▁allow	-1278
▁mem	-1279
anguage	-1280
▁__	-1281
dd	-1282
▁ear	-1283
emails	-1284
▁children	-1285
ET	-1286
▁null	-1287
▁right	-1288
www	-1289
▁Con	-1290
amp	-1291
cond	-1292
▁join	-1293
icy	-1294
rain	-1295
limit	-1296
olum	-1297
2.	-1298
cul	-1299
▁Cl	-1300
source	-1301
▁ref	-1302
expenses	-1303
AN	-1304
▁before	-1305
icrosoft	-1306
":"/	-1307
body	-1308
curity	-1309
▁https	-1310
▁tem	-1311
05	-1312
loat	-1313
▁responses	-1314
ailable	-1315
▁during	-1316
ved	-1317
▁They	-1318
ness	-1319
########	-1320
estination	-1321
▁9	-1322
comm	-1323
▁values	-1324
▁arg	-1325
not	-1326
opy	-1327
▁said	-1328
}]	-1329
ather	-1330
point	-1331
ape	-1332
▁log	-1333
▁post	-1334
ails	-1335
▁order	-1336
▁life	-1337
ession	-1338
vironment	-1339
Cl	-1340
▁commun	-1341
ES	-1342
.”	-1343
▁current	-1344
ency	-1345
▁body	-1346
19	-1347
mb	-1348
▁both	-1349
▁enum	-1350
nect	-1351
ince	-1352
▁person	-1353
▁while	-1354
▁techn	-1355
▁show	-1356
▁pop	-1357
Request	-1358
come	-1359
ances	-1360
1.	-1361
▁try	-1362
ec	-1363
▁much	-1364
stru	-1365
▁On	-1366
ning	-1367
▁\	-1368
ivid	-1369
▁hist	-1370
▁important	-1371
▁cond	-1372
sy	-1373
▁main	-1374
arm	-1375
the	-1376
elect	-1377
ank	-1378
itional	-1379
▁activ	-1380
▁What	-1381
▁fam	-1382
▁again	-1383
ined	-1384
part	-1385
uration	-1386
▁colle	-1387
▁made	-1388
▁New	-1389
>>	-1390
sible	-1391
ified	-1392
rel	-1393
anag	-1394
▁lead	-1395
▁exper	-1396
4,	-1397
ards	-1398
▁To	-1399
▁appro	-1400
▁page	-1401
aract	-1402
▁integer	-1403
results	-1404
▁she	-1405
XX	-1406
▁last	-1407
▁food	-1408
▁include	-1409
▁product	-1410
▁run	-1411
▁sol	-1412
net	-1413
ponse	-1414
▁students	-1415
It	-1416
...	-1417
▁proble	-1418
▁There	-1419
▁When	-1420
ey	-1421
▁build	-1422
▁based	-1423
way	-1424
rans	-1425
ished	-1426
25	-1427
▁resource	-1428
▁</	-1429
lob	-1430
ives	-1431
ustom	-1432
▁But	-1433
▁organ	-1434
report	-1435
atic	-1436
stand	-1437
ner	-1438
▁direct	-1439
▁access	-1440
▁study	-1441
▁small	-1442
**	-1443
for	-1444
metric	-1445
ron	-1446
google	-1447
ared	-1448
▁good	-1449
ox	-1450
complete	-1451
▁want	-1452
▁prot	-1453
▁specific	-1454
model	-1455
itions	-1456
valid	-1457
▁ins	-1458
▁arch	-1459
▁school	-1460
▁grow	-1461
class	-1462
ret	-1463
loc	-1464
▁occ	-1465
:00:00	-1466
rite	-1467
15	-1468
▁contin	-1469
ats	-1470
▁vis	-1471
pp	-1472
iod	-1473
ason	-1474
load	-1475
AS	-1476
▁day	-1477
▁line	-1478
hip	-1479
gram	-1480
ves	-1481
32	-1482
ead	-1483
▁@	-1484
▁Defaults	-1485
rid	-1486
icense	-1487
▁down	-1488
▁bre	-1489
ternal	-1490
▁Monday	-1491
.</	-1492
▁lit	-1493
util	-1494
back	-1495
word	-1496
▁now	-1497
ipient	-1498
▁error	-1499
========	-1500
▁too	-1501
filters	-1502
▁Ind	-1503
access	-1504
▁tags	-1505
▁rem	-1506
▁less	-1507
▁True	-1508
0000	-1509
▁account	-1510
▁govern	-1511
▁writ	-1512
anc	-1513
▁operationId	-1514
ross	-1515
▁cell	-1516
changes	-1517
omen	-1518
ifier	-1519
iversity	-1520
▁take	-1521
▁address	-1522
▁lab	-1523
ral	-1524
ackage	-1525
▁Q	-1526
▁often	-1527
▁Create	-1528
land	-1529
gg	-1530
api	-1531
vert	-1532
ocial	-1533
▁app	-1534
:30	-1535
array	-1536
ability	-1537
ident	-1538
csv	-1539
ruct	-1540
subject	-1541
ale	-1542
log	-1543
▁('	-1544
▁dr	-1545
ream	-1546
IC	-1547
▁treat	-1548
▁est	-1549
▁common	-1550
db	-1551
▁print	-1552
ployment	-1553
mazon	-1554
destination	-1555
ward	-1556
▁And	-1557
ah	-1558
ites	-1559
24	-1560
Response	-1561
ulation	-1562
▁These	-1563
ider	-1564
ffic	-1565
▁aut	-1566
dir	-1567
"""	-1568
▁date	-1569
adline	-1570
▁.	-1571
▁within	-1572
ital	-1573
▁unique	-1574
▁hand	-1575
orth	-1576
ression	-1577
▁category	-1578
▁power	-1579
▁ris	-1580
▁version	-1581
▁dec	-1582
▁without	-1583
ergy	-1584
less	-1585
recipient	-1586
draft	-1587
duct	-1588
▁service	-1589
0.	-1590
Fet	-1591
▁som	-1592
Cont	-1593
▁source	-1594
▁title	-1595
ION	-1596
ware	-1597
▁mat	-1598
ouse	-1599
▁human	-1600
▁three	-1601
▁config	-1602
▁available	-1603
▁associ	-1604
▁message	-1605
pected	-1606
▁around	-1607
fl	-1608
▁'48	-1609
▁os	-1610
▁final	-1611
:00:00+	-1612
tle	-1613
▁orig	-1614
internship	-1615
responses	-1616
ran	-1617
yle	-1618
▁including	-1619
▁charact	-1620
Field	-1621
aggregation	-1622
ole	-1623
05:30	-1624
▁dise	-1625
groupby	-1626
:00:00+05:30	-1627
":"2026-07-20	-1628
microsoft	-1629
deadline	-1630
ium	-1631
__(	-1632
bu	-1633
▁change	-1634
▁sl	-1635
▁him	-1636
events	-1637
dule	-1638
▁Find	-1639
eger	-1640
▁nullable	-1641
▁i	-1642
msg	-1643
▁play	-1644
▁disc	-1645
▁design	-1646
Group	-1647
AM	-1648
amples	-1649
▁create	-1650
▁limit	-1651
||	-1652
▁called	-1653
▁beh	-1654
Resource	-1655
▁elect	-1656
▁auth	-1657
ration	-1658
▁&	-1659
uss	-1660
▁imp	-1661
eb	-1662
▁research	-1663
▁mult	-1664
▁z	-1665
Test	-1666
▁top	-1667
▁open	-1668
omain	-1669
ither	-1670
▁Ret	-1671
play	-1672
▁following	-1673
▁did	-1674
tings	-1675
▁redu	-1676
▁gu	-1677
▁X	-1678
▁Is	-1679
ingle	-1680
Se	-1681
▁stand	-1682
itive	-1683
▁compl	-1684
ended	-1685
▁place	-1686
lood	-1687
▁here	-1688
▁doc	-1689
thon	-1690
▁range	-1691
▁fr	-1692
▁language	-1693
orn	-1694
▁non	-1695
▁real	-1696
([	-1697
▁target	-1698
▁Sc	-1699
▁mark	-1700
▁cal	-1701
▁don	-1702
info	-1703
▁ke	-1704
▁Su	-1705
ven	-1706
ories	-1707
▁might	-1708
▁cert	-1709
▁present	-1710
ables	-1711
ameter	-1712
Date	-1713
▁created	-1714
aws	-1715
"]	-1716
icle	-1717
lear	-1718
ividual	-1719
▁gen	-1720
ides	-1721
▁great	-1722
▁public	-1723
▁Be	-1724
▁np	-1725
RO	-1726
LE	-1727
▁fin	-1728
bs	-1729
https	-1730
Ch	-1731
outh	-1732
▁gre	-1733
▁cour	-1734
ango	-1735
ification	-1736
▁environment	-1737
▁output	-1738
aterial	-1739
▁Group	-1740
▁educ	-1741
AC	-1742
ior	-1743
▁adv	-1744
iness	-1745
▁still	-1746
▁et	-1747
▁boo	-1748
▁Sh	-1749
float	-1750
ury	-1751
US	-1752
ately	-1753
Th	-1754
▁Eng	-1755
'),	-1756
IS	-1757
▁another	-1758
▁except	-1759
▁instance	-1760
oss	-1761
▁search	-1762
22	-1763
[0]	-1764
▁input	-1765
▁country	-1766
sw	-1767
apt	-1768
ensor	-1769
ived	-1770
jango	-1771
ING	-1772
▁known	-1773
▁False	-1774
64	-1775
▁second	-1776
▁net	-1777
▁serv	-1778
Time	-1779
▁Z	-1780
▁requi	-1781
▁cap	-1782
3.	-1783
instance	-1784
"}}}]	-1785
▁pres	-1786
▁1,	-1787
▁area	-1788
aces	-1789
ording	-1790
▁property	-1791
face	-1792
size	-1793
inc	-1794
az	-1795
▁anal	-1796
▁dat	-1797
ted	-1798
yn	-1799
▁parent	-1800
UT	-1801
ond	-1802
▁quest	-1803
▁provide	-1804
▁dri	-1805
uro	-1806
▁old	-1807
▁interest	-1808
7,	-1809
org	-1810
▁eas	-1811
▁size	-1812
▁control	-1813
▁case	-1814
▁pur	-1815
tain	-1816
ining	-1817
▁All	-1818
▁look	-1819
,”	-1820
ways	-1821
▁provided	-1822
▁returned	-1823
▁perform	-1824
▁Sp	-1825
Config	-1826
ively	-1827
▁lo	-1828
▁individual	-1829
append	-1830
gin	-1831
mor	-1832
▁pract	-1833
ering	-1834
oh	-1835
▁spe	-1836
▁few	-1837
conom	-1838
iction	-1839
apis	-1840
API	-1841
ribute	-1842
▁init	-1843
18	-1844
▁En	-1845
▁understand	-1846
enc	-1847
▁large	-1848
lobal	-1849
rie	-1850
text	-1851
ially	-1852
▁ide	-1853
uture	-1854
▁However	-1855
PE	-1856
plate	-1857
----------------	-1858
bl	-1859
▁‘	-1860
▁ter	-1861
▁air	-1862
▁0.	-1863
idd	-1864
vers	-1865
raw	-1866
oms	-1867
▁Search	-1868
():	-1869
▁Fri	-1870
▁action	-1871
Length	-1872
▁Ph	-1873
▁enc	-1874
atform	-1875
med	-1876
▁Pl	-1877
6,	-1878
▁manag	-1879
oid	-1880
oper	-1881
▁submit	-1882
▁Sche	-1883
ops	-1884
▁status	-1885
▁bas	-1886
mission	-1887
run	-1888
▁period	-1889
imate	-1890
comp	-1891
ik	-1892
Token	-1893
▁raise	-1894
▁image	-1895
of	-1896
▁Amazon	-1897
html	-1898
▁local	-1899
▁{'	-1900
▁social	-1901
False	-1902
ients	-1903
▁energy	-1904
▁Get	-1905
▁po	-1906
Project	-1907
▁caus	-1908
▁PM	-1909
ights	-1910
▁dem	-1911
▁eng	-1912
aving	-1913
-9	-1914
stit	-1915
▁folder	-1916
▁[]	-1917
▁So	-1918
ords	-1919
man	-1920
▁material	-1921
cle	-1922
▁bo	-1923
ek	-1924
▁fi	-1925
34	-1926
ference	-1927
▁exist	-1928
▁view	-1929
here	-1930
ton	-1931
▁meas	-1932
▁phys	-1933
▁{}	-1934
▁events	-1935
flow	-1936
Value	-1937
place	-1938
sum	-1939
ctor	-1940
▁15	-1941
ots	-1942
▁deployment	-1943
ts	-1944
▁ben	-1945
▁ve	-1946
▁iss	-1947
ention	-1948
▁199	-1949
plement	-1950
▁success	-1951
''	-1952
▁appe	-1953
Not	-1954
▁Can	-1955
▁best	-1956
▁American	-1957
Ar	-1958
col	-1959
▁summary	-1960
▁At	-1961
lish	-1962
▁mill	-1963
aking	-1964
▁University	-1965
▁rece	-1966
'.",	-1967
nection	-1968
ler	-1969
ision	-1970
▁occur	-1971
ension	-1972
mpt	-1973
Fetches	-1974
▁development	-1975
ured	-1976
▁impro	-1977
▁program	-1978
▁against	-1979
config	-1980
odes	-1981
▁either	-1982
▁12	-1983
vious	-1984
googleapis	-1985
Set	-1986
DE	-1987
lab	-1988
▁comput	-1989
hes	-1990
▁pot	-1991
format	-1992
▁device	-1993
Package	-1994
▁Move	-1995
▁represent	-1996
▁possible	-1997
mbol	-1998
adata	-1999
▁archive	-2000
option	-2001
▁**	-2002
rieve	-2003
ises	-2004
ns	-2005
▁Friday	-2006
1)	-2007
▁means	-2008
ched	-2009
▁struct	-2010
'.	-2011
▁plan	-2012
sub	-2013
integer	-2014
example	-2015
▁types	-2016
state	-2017
ograph	-2018
▁es	-2019
atures	-2020
▁mean	-2021
▁women	-2022
▁expenses	-2023
▁mus	-2024
elete	-2025
▁low	-2026
head	-2027
▁home	-2028
▁leg	-2029
▁pattern	-2030
ules	-2031
▁tak	-2032
On	-2033
``	-2034
roll	-2035
ences	-2036
▁associated	-2037
veral	-2038
▁disease	-2039
▁port	-2040
40	-2041
ogn	-2042
project	-2043
▁Im	-2044
▁care	-2045
ological	-2046
ling	-2047
▁risk	-2048
request	-2049
iple	-2050
▁fre	-2051
morrow	-2052
▁since	-2053
idence	-2054
▁fore	-2055
▁Schedule	-2056
▁resources	-2057
▁tomorrow	-2058
term	-2059
▁tri	-2060
▁percent	-2061
▁whether	-2062
ently	-2063
▁unt	-2064
af	-2065
Com	-2066
▁light	-2067
mon	-2068
▁US	-2069
token	-2070
▁spreadsheet	-2071
ental	-2072
.'	-2073
open	-2074
▁pay	-2075
ians	-2076
▁job	-2077
urns	-2078
▁filter	-2079
join	-2080
cer	-2081
imal	-2082
andom	-2083
▁cult	-2084
▁times	-2085
▁Draft	-2086
▁diff	-2087
▁confirming	-2088
▁mil	-2089
▁particular	-2090
atural	-2091
▁License	-2092
▁move	-2093
my	-2094
Ret	-2095
▁history	-2096
▁checklist	-2097
ideo	-2098
▁internship	-2099
▁desc	-2100
▁1.	-2101
▁single	-2102
▁pain	-2103
dict	-2104
posit	-2105
▁become	-2106
▁unread	-2107
▁details	-2108
sc	-2109
inter	-2110
▁tot	-2111
▁region	-2112
▁month	-2113
▁ant	-2114
ised	-2115
▁Cont	-2116
▁Or	-2117
RL	-2118
ama	-2119
▁valid	-2120
ications	-2121
▁Success	-2122
aut	-2123
ging	-2124
▁better	-2125
action	-2126
field	-2127
ought	-2128
bed	-2129
dev	-2130
cript	-2131
.__	-2132
▁token	-2133
riev	-2134
wargs	-2135
ered	-2136
8,	-2137
ormal	-2138
version	-2139
9,	-2140
Un	-2141
▁invest	-2142
▁security	-2143
▁bus	-2144
rist	-2145
rop	-2146
▁100	-2147
mod	-2148
[1	-2149
▁descri	-2150
▁maj	-2151
stems	-2152
ilar	-2153
▁land	-2154
User	-2155
▁rema	-2156
▁groups	-2157
aggregate	-2158
itor	-2159
▁cause	-2160
▁government	-2161
documents	-2162
kes	-2163
_10	-2164
31	-2165
▁keep	-2166
▁blood	-2167
▁infl	-2168
▁family	-2169
mat	-2170
▁hig	-2171
order	-2172
▁rate	-2173
▁short	-2174
ready	-2175
▁One	-2176
▁early	-2177
▁United	-2178
por	-2179
verse	-2180
ENT	-2181
▁prof	-2182
ply	-2183
▁Oauth	-2184
new	-2185
ember	-2186
▁custom	-2187
ename	-2188
▁—	-2189
▁econom	-2190
▁cost	-2191
▁gl	-2192
atest	-2193
olution	-2194
▁len	-2195
▁related	-2196
▁certain	-2197
def	-2198
▁let	-2199
OT	-2200
etch	-2201
▁species	-2202
ocol	-2203
▁tre	-2204
▁maximum	-2205
▁learning	-2206
indow	-2207
▁pred	-2208
▁put	-2209
▁men	-2210
oy	-2211
lease	-2212
▁able	-2213
ators	-2214
50	-2215
pload	-2216
▁several	-2217
▁rest	-2218
amb	-2219
["	-2220
ills	-2221
▁Ap	-2222
index	-2223
16:00:00+05:30	-2224
uid	-2225
String	-2226
▁Ad	-2227
▁flow	-2228
▁happ	-2229
itude	-2230
CT	-2231
iving	-2232
ee	-2233
▁law	-2234
gen	-2235
▁identifier	-2236
ysis	-2237
▁say	-2238
ina	-2239
▁near	-2240
dat	-2241
▁invol	-2242
▁qual	-2243
78	-2244
▁full	-2245
▁connect	-2246
▁distribut	-2247
aps	-2248
▁fail	-2249
▁Col	-2250
olicy	-2251
etime	-2252
alt	-2253
from	-2254
rences	-2255
▁total	-2256
▁location	-2257
42	-2258
▁bi	-2259
▁sugg	-2260
models	-2261
▁suggest	-2262
`.	-2263
▁match	-2264
Key	-2265
▁things	-2266
Get	-2267
rap	-2268
ending	-2269
missions	-2270
▁By	-2271
lect	-2272
".	-2273
eg	-2274
stant	-2275
▁benef	-2276
aster	-2277
eting	-2278
pre	-2279
▁""},	-2280
ilt	-2281
accessPackage	-2282
iter	-2283
99	-2284
▁conditions	-2285
most	-2286
▁behav	-2287
▁mar	-2288
56	-2289
ird	-2290
▁bro	-2291
▁affect	-2292
▁indic	-2293
▁signific	-2294
▁policy	-2295
."""	-2296
acy	-2297
▁character	-2298
bo	-2299
une	-2300
▁sw	-2301
▁style	-2302
pository	-2303
UN	-2304
▁lik	-2305
▁role	-2306
▁areas	-2307
IL	-2308
SE	-2309
())	-2310
irt	-2311
-2	-2312
▁always	-2313
▁names	-2314
▁rad	-2315
▁Some	-2316
serv	-2317
▁document	-2318
cloud	-2319
posed	-2320
▁creat	-2321
▁States	-2322
▁Wor	-2323
14	-2324
▁days	-2325
▁pa	-2326
▁mov	-2327
inary	-2328
verage	-2329
ored	-2330
▁among	-2331
ains	-2332
▁prevent	-2333
▁free	-2334
param	-2335
▁super	-2336
▁depend	-2337
▁until	-2338
▁With	-2339
ush	-2340
ably	-2341
page	-2342
▁Not	-2343
olume	-2344
▁16	-2345
▁age	-2346
▁above	-2347
▁elif	-2348
">	-2349
ours	-2350
alk	-2351
urther	-2352
book	-2353
empt	-2354
,"	-2355
▁>	-2356
mp	-2357
▁comb	-2358
▁four	-2359
though	-2360
dis	-2361
▁scient	-2362
igned	-2363
▁feel	-2364
▁think	-2365
▁boolean	-2366
len	-2367
ething	-2368
▁others	-2369
ocus	-2370
▁py	-2371
osp	-2372
▁treatment	-2373
AB	-2374
Data	-2375
▁cir	-2376
▁problem	-2377
▁Cent	-2378
▁expected	-2379
unc	-2380
▁later	-2381
▁says	-2382
▁sort	-2383
ivity	-2384
▁host	-2385
▁repository	-2386
now	-2387
ones	-2388
▁context	-2389
HE	-2390
▁base	-2391
▁copy	-2392
▁trad	-2393
anagement	-2394
▁fac	-2395
▁making	-2396
ends	-2397
▁additional	-2398
annel	-2399
▁come	-2400
▁2,	-2401
year	-2402
▁index	-2403
▁space	-2404
▁Sy	-2405
agn	-2406
▁--	-2407
▁words	-2408
▁options	-2409
parse	-2410
▁plant	-2411
▁author	-2412
▁changes	-2413
uster	-2414
▁require	-2415
▁site	-2416
▁header	-2417
▁God	-2418
▁least	-2419
Par	-2420
▁consum	-2421
AD	-2422
▁Med	-2423
oice	-2424
▁along	-2425
with	-2426
write	-2427
rate	-2428
▁fields	-2429
5.	-2430
plit	-2431
▁special	-2432
▁sent	-2433
▁Te	-2434
▁sit	-2435
urope	-2436
▁left	-2437
▁needs	-2438
▁already	-2439
▁Af	-2440
▁numbers	-2441
▁National	-2442
▁education	-2443
input	-2444
Al	-2445
▁book	-2446
▁press	-2447
icult	-2448
▁levels	-2449
17	-2450
ope	-2451
▁war	-2452
rect	-2453
▁hard	-2454
▁consider	-2455
▁cells	-2456
▁problems	-2457
▁http	-2458
utput	-2459
2:	-2460
cks	-2461
ieve	-2462
asks	-2463
uation	-2464
nal	-2465
13	-2466
TP	-2467
▁little	-2468
lex	-2469
▁17	-2470
eted	-2471
▁natural	-2472
eral	-2473
▁List	-2474
>>>	-2475
▁far	-2476
▁Christ	-2477
▁future	-2478
▁population	-2479
▁crit	-2480
▁turn	-2481
################	-2482
▁Test	-2483
▁protect	-2484
ledge	-2485
Only	-2486
shape	-2487
resh	-2488
▁city	-2489
▁due	-2490
▁Google	-2491
▁begin	-2492
lib	-2493
▁works	-2494
_2	-2495
▁pref	-2496
PL	-2497
gether	-2498
check	-2499
utils	-2500
▁clear	-2501
▁parameter	-2502
IM	-2503
spec	-2504
Body	-2505
xml	-2506
▁ge	-2507
▁potential	-2508
AG	-2509
▁color	-2510
▁various	-2511
▁something	-2512
▁link	-2513
▁lower	-2514
iation	-2515
plex	-2516
abled	-2517
▁similar	-2518
▁network	-2519
ving	-2520
4.	-2521
▁tool	-2522
"}}]	-2523
`,	-2524
▁impact	-2525
utes	-2526
ements	-2527
CO	-2528
▁past	-2529
ha	-2530
sequ	-2531
▁likely	-2532
(),	-2533
▁hy	-2534
▁2.	-2535
gress	-2536
attr	-2537
tes	-2538
▁soft	-2539
ohn	-2540
].	-2541
off	-2542
▁term	-2543
▁cannot	-2544
ung	-2545
IG	-2546
▁Dr	-2547
▁reason	-2548
ilities	-2549
omet	-2550
▁cases	-2551
▁systems	-2552
ibility	-2553
▁item	-2554
▁inc	-2555
▁heart	-2556
▁significant	-2557
▁ver	-2558
stance	-2559
▁indust	-2560
▁retrieve	-2561
▁ste	-2562
groups	-2563
▁)	-2564
▁node	-2565
▁Europe	-2566
over	-2567
▁word	-2568
ired	-2569
▁conc	-2570
▁""	-2571
▁ann	-2572
▁focus	-2573
side	-2574
▁necess	-2575
method	-2576
xy	-2577
▁0,	-2578
ane	-2579
8.	-2580
evel	-2581
trans	-2582
▁abs	-2583
orage	-2584
▁ess	-2585
▁give	-2586
ceed	-2587
▁across	-2588
2)	-2589
EX	-2590
ram	-2591
▁polit	-2592
struct	-2593
▁client	-2594
▁previous	-2595
▁Par	-2596
▁lay	-2597
▁course	-2598
host	-2599
plic	-2600
▁See	-2601
▁business	-2602
▁server	-2603
thing	-2604
▁IN	-2605
mar	-2606
node	-2607
▁models	-2608
▁IS	-2609
aim	-2610
▁subject	-2611
▁working	-2612
amed	-2613
▁rese	-2614
pdate	-2615
▁sure	-2616
ternational	-2617
▁relations	-2618
cale	-2619
▁30	-2620
▁AN	-2621
▁opt	-2622
ermin	-2623
▁usually	-2624
oot	-2625
br	-2626
ublic	-2627
▁community	-2628
oph	-2629
▁prom	-2630
▁products	-2631
client	-2632
▁increase	-2633
Im	-2634
iev	-2635
▁Ass	-2636
▁activity	-2637
depend	-2638
▁Ear	-2639
http	-2640
umber	-2641
▁higher	-2642
let	-2643
▁Cal	-2644
▁ens	-2645
▁express	-2646
▁today	-2647
▁dig	-2648
oney	-2649
▁why	-2650
▁Add	-2651
▁specify	-2652
asing	-2653
ae	-2654
base	-2655
istic	-2656
wor	-2657
abase	-2658
▁dep	-2659
})	-2660
opt	-2661
▁temper	-2662
▁That	-2663
▁technology	-2664
▁members	-2665
▁dest	-2666
▁difficult	-2667
▁web	-2668
IP	-2669
▁tasks	-2670
alf	-2671
▁\"	-2672
▁record	-2673
ales	-2674
ison	-2675
cing	-2676
rad	-2677
▁side	-2678
▁countries	-2679
igation	-2680
▁Ge	-2681
platform	-2682
▁display	-2683
imest	-2684
▁never	-2685
ott	-2686
kwargs	-2687
▁global	-2688
▁general	-2689
'],	-2690
chers	-2691
▁brain	-2692
emplate	-2693
▁death	-2694
▁experience	-2695
▁million	-2696
▁recomm	-2697
arge	-2698
Items	-2699
33	-2700
ift	-2701
CE	-2702
▁prob	-2703
category	-2704
TER	-2705
▁"200	-2706
▁major	-2707
▁ey	-2708
alid	-2709
-8	-2710
▁Acc	-2711
oding	-2712
▁cy	-2713
aves	-2714
da	-2715
ister	-2716
▁'<	-2717
▁imm	-2718
▁URL	-2719
UR	-2720
▁No	-2721
▁miss	-2722
plication	-2723
▁table	-2724
ait	-2725
▁team	-2726
▁Do	-2727
▁red	-2728
▁weight	-2729
7.	-2730
hel	-2731
ze	-2732
▁After	-2733
▁mot	-2734
▁having	-2735
pecially	-2736
▁together	-2737
▁requestBody	-2738
ok	-2739
▁objects	-2740
En	-2741
ociety	-2742
▁ill	-2743
aching	-2744
HO	-2745
▁length	-2746
▁cancer	-2747
::	-2748
▁select	-2749
▁domain	-2750
▁ri	-2751
fact	-2752
wh	-2753
iol	-2754
▁teache	-2755
elves	-2756
▁IP	-2757
▁!	-2758
▁+=	-2759
▁operations	-2760
equal	-2761
▁provides	-2762
atory	-2763
response	-2764
▁initial	-2765
▁contains	-2766
▁Che	-2767
▁improve	-2768
▁thought	-2769
▁priv	-2770
no	-2771
▁While	-2772
essages	-2773
▁English	-2774
process	-2775
▁vol	-2776
▁media	-2777
▁Bl	-2778
▁century	-2779
▁young	-2780
▁original	-2781
▁Gu	-2782
▁particip	-2783
inks	-2784
rary	-2785
erver	-2786
istance	-2787
eta	-2788
▁strong	-2789
▁away	-2790
▁"200":	-2791
▁done	-2792
django	-2793
mptoms	-2794
▁multiple	-2795
▁estab	-2796
9.	-2797
ening	-2798
▁['	-2799
aring	-2800
▁readOnly	-2801
▁enough	-2802
▁below	-2803
▁however	-2804
▁50	-2805
▁Afric	-2806
▁simple	-2807
ooking	-2808
atal	-2809
▁Web	-2810
rency	-2811
hol	-2812
▁clos	-2813
ipp	-2814
▁video	-2815
▁Ab	-2816
▁Brit	-2817
▁href	-2818
▁ways	-2819
fer	-2820
inking	-2821
ged	-2822
▁url	-2823
upport	-2824
dri	-2825
▁OF	-2826
▁Name	-2827
Cloud	-2828
oman	-2829
overn	-2830
context	-2831
md	-2832
By	-2833
▁makes	-2834
find	-2835
ump	-2836
▁bir	-2837
YPE	-2838
▁block	-2839
▁sys	-2840
▁Germ	-2841
ildren	-2842
▁maxLength	-2843
================	-2844
▁growth	-2845
▁Dis	-2846
▁exec	-2847
▁standard	-2848
TTP	-2849
eria	-2850
▁contact	-2851
wards	-2852
hern	-2853
fr	-2854
length	-2855
ributes	-2856
acc	-2857
ips	-2858
iver	-2859
▁er	-2860
Qu	-2861
▁typ	-2862
LO	-2863
cope	-2864
▁World	-2865
target	-2866
▁aggreg	-2867
▁especially	-2868
▁symbol	-2869
▁John	-2870
icles	-2871
▁plants	-2872
▁command	-2873
▁physical	-2874
▁once	-2875
like	-2876
np	-2877
ta	-2878
▁dam	-2879
▁going	-2880
fficient	-2881
types	-2882
▁frequ	-2883
▁feed	-2884
▁neg	-2885
▁kind	-2886
60	-2887
iddle	-2888
▁separ	-2889
▁shape	-2890
▁discuss	-2891
>'	-2892
▁la	-2893
arning	-2894
▁continue	-2895
izer	-2896
leep	-2897
Found	-2898
anged	-2899
▁big	-2900
▁further	-2901
▁resear	-2902
wise	-2903
rodu	-2904
80	-2905
overed	-2906
▁quality	-2907
ero	-2908
6.	-2909
ender	-2910
▁chem	-2911
▁live	-2912
23	-2913
▁,	-2914
▁seen	-2915
▁25	-2916
▁question	-2917
▁Stud	-2918
▁house	-2919
EM	-2920
For	-2921
▁Per	-2922
▁accept	-2923
aries	-2924
UL	-2925
▁studies	-2926
▁influ	-2927
▁Rap	-2928
▁rather	-2929
▁knowledge	-2930
▁activities	-2931
▁exc	-2932
hr	-2933
came	-2934
▁anim	-2935
urch	-2936
▁}	-2937
▁Health	-2938
▁building	-2939
appro	-2940
mark	-2941
imestamp	-2942
▁effects	-2943
amazon	-2944
bon	-2945
▁(19	-2946
▁returns	-2947
▁addition	-2948
acks	-2949
SS	-2950
▁chall	-2951
▁ur	-2952
▁ask	-2953
▁writing	-2954
▁wid	-2955
▁!=	-2956
istics	-2957
IV	-2958
▁became	-2959
▁Spec	-2960
▁load	-2961
Att	-2962
refore	-2963
▁isinstance	-2964
utions	-2965
struction	-2966
▁War	-2967
▁concern	-2968
▁according	-2969
▁company	-2970
▁unit	-2971
▁needed	-2972
▁Reg	-2973
▁rows	-2974
▁fetch	-2975
▁complex	-2976
▁observ	-2977
ai	-2978
▁condition	-2979
▁rule	-2980
▁recogn	-2981
CH	-2982
'])	-2983
pass	-2984
▁week	-2985
▁lib	-2986
▁rights	-2987
▁supported	-2988
pace	-2989
▁patients	-2990
amount	-2991
Int	-2992
Item	-2993
▁eff	-2994
▁equal	-2995
function	-2996
▁users	-2997
obj	-2998
▁OR	-2999
YY	-3000
▁CO	-3001
▁rele	-3002
gor	-3003
▁[],	-3004
▁minimum	-3005
This	-3006
Ass	-3007
▁mass	-3008
print	-3009
▁break	-3010
Content	-3011
▁position	-3012
aging	-3013
▁element	-3014
names	-3015
table	-3016
Policy	-3017
ising	-3018
▁article	-3019
ota	-3020
ifies	-3021
▁histor	-3022
pose	-3023
▁six	-3024
python	-3025
return	-3026
▁"/	-3027
do	-3028
▁phot	-3029
▁nav	-3030
▁Prov	-3031
▁Rapid	-3032
▁fall	-3033
build	-3034
▁Mar	-3035
rem	-3036
1}/	-3037
▁engine	-3038
▁->	-3039
ooks	-3040
uck	-3041
enn	-3042
▁science	-3043
▁``	-3044
▁Use	-3045
bit	-3046
▁points	-3047
▁symptoms	-3048
▁nut	-3049
▁May	-3050
▁Act	-3051
▁3,	-3052
▁Qu	-3053
▁methods	-3054
Add	-3055
▁uses	-3056
post	-3057
▁Car	-3058
Model	-3059
items	-3060
high	-3061
amin	-3062
▁loss	-3063
▁actually	-3064
hent	-3065
▁She	-3066
▁upd	-3067
▁production	-3068
sl	-3069
idered	-3070
▁story	-3071
operation	-3072
tra	-3073
▁collection	-3074
▁instead	-3075
ordin	-3076
▁whole	-3077
inition	-3078
▁implement	-3079
ML	-3080
▁taken	-3081
minist	-3082
▁offic	-3083
bug	-3084
▁origin	-3085
map	-3086
▁Other	-3087
▁Int	-3088
▁issues	-3089
Service	-3090
gorith	-3091
au	-3092
▁training	-3093
View	-3094
▁analysis	-3095
▁obtain	-3096
▁14	-3097
eds	-3098
mber	-3099
▁reduce	-3100
erson	-3101
ailed	-3102
▁Ag	-3103
ptions	-3104
▁tests	-3105
▁doesn	-3106
▁Fr	-3107
rc	-3108
cret	-3109
atter	-3110
▁really	-3111
ened	-3112
▁configuration	-3113
▁effort	-3114
▁args	-3115
▁rev	-3116
lection	-3117
▁considered	-3118
ene	-3119
If	-3120
((	-3121
▁fri	-3122
▁includes	-3123
light	-3124
▁normal	-3125
▁RapidAPI	-3126
▁relationship	-3127
aced	-3128
pid	-3129
oose	-3130
astic	-3131
▁personal	-3132
based	-3133
▁West	-3134
▁grad	-3135
▁lot	-3136
▁states	-3137
▁entire	-3138
▁services	-3139
sk	-3140
Properties	-3141
▁surface	-3142
ony	-3143
▁Le	-3144
De	-3145
ounds	-3146
site	-3147
▁though	-3148
Ap	-3149
pute	-3150
▁deg	-3151
content	-3152
▁stop	-3153
objects	-3154
▁behavior	-3155
▁employ	-3156
▁paper	-3157
▁included	-3158
▁step	-3159
FF	-3160
nap	-3161
ercis	-3162
▁cut	-3163
image	-3164
▁avoid	-3165
-4	-3166
▁Gener	-3167
rix	-3168
▁tell	-3169
ores	-3170
▁five	-3171
▁1)	-3172
▁sens	-3173
▁published	-3174
"}},	-3175
aged	-3176
Per	-3177
▁update	-3178
▁Resource	-3179
ius	-3180
▁added	-3181
medi	-3182
sych	-3183
▁white	-3184
▁etc	-3185
▁micro	-3186
ptional	-3187
▁itself	-3188
ully	-3189
▁parts	-3190
'):	-3191
▁terms	-3192
hand	-3193
anced	-3194
ried	-3195
level	-3196
AP	-3197
nown	-3198
illed	-3199
\"	-3200
-01	-3201
▁America	-3202
ued	-3203
▁ach	-3204
▁successful	-3205
▁national	-3206
Status	-3207
▁hours	-3208
▁integr	-3209
▁software	-3210
▁longer	-3211
▁developed	-3212
▁sun	-3213
▁questions	-3214
ls	-3215
▁oil	-3216
File	-3217
▁...	-3218
▁princ	-3219
NotFound	-3220
▁Many	-3221
ffer	-3222
portun	-3223
ley	-3224
▁market	-3225
prot	-3226
Cal	-3227
▁settings	-3228
Management	-3229
().	-3230
olumn	-3231
▁evidence	-3232
osis	-3233
ional	-3234
▁active	-3235
redential	-3236
aily	-3237
70	-3238
▁South	-3239
▁dou	-3240
▁State	-3241
▁upon	-3242
////	-3243
▁connection	-3244
▁York	-3245
▁collect	-3246
▁management	-3247
▁climate	-3248
bar	-3249
▁necessary	-3250
▁Aust	-3251
▁nature	-3252
▁3.	-3253
ding	-3254
ivil	-3255
iment	-3256
100	-3257
▁measure	-3258
ief	-3259
FI	-3260
ached	-3261
▁Us	-3262
peration	-3263
▁Pe	-3264
parent	-3265
▁"20	-3266
▁answ	-3267
itch	-3268
position	-3269
go	-3270
▁built	-3271
Che	-3272
change	-3273
▁ground	-3274
▁Returns	-3275
ournal	-3276
▁endpoint	-3277
▁Ne	-3278
▁eval	-3279
device	-3280
latest	-3281
▁hol	-3282
asc	-3283
▁becom	-3284
ql	-3285
▁North	-3286
▁calcul	-3287
▁Hist	-3288
▁medical	-3289
chan	-3290
▁strateg	-3291
▁recent	-3292
ensions	-3293
▁clean	-3294
▁structure	-3295
mselves	-3296
▁extra	-3297
▁regular	-3298
▁exception	-3299
abet	-3300
▁drug	-3301
inds	-3302
▁came	-3303
foo	-3304
uri	-3305
▁regard	-3306
▁themselves	-3307
▁yet	-3308
▁animals	-3309
stream	-3310
▁living	-3311
▁soil	-3312
iqu	-3313
▁tag	-3314
actions	-3315
▁identify	-3316
▁bring	-3317
ATE	-3318
.)	-3319
values	-3320
39	-3321
▁average	-3322
▁skin	-3323
▁relig	-3324
split	-3325
▁equi	-3326
Count	-3327
partment	-3328
aug	-3329
clude	-3330
▁gra	-3331
▁poss	-3332
▁black	-3333
cial	-3334
▁maintain	-3335
▁colum	-3336
ponent	-3337
▁cr	-3338
▁CON	-3339
izing	-3340
▁quick	-3341
▁elements	-3342
DateTime	-3343
▁won	-3344
rown	-3345
▁researchers	-3346
Pl	-3347
anager	-3348
usion	-3349
▁198	-3350
▁Earth	-3351
det	-3352
▁aud	-3353
ges	-3354
▁mor	-3355
▁correct	-3356
TR	-3357
▁stress	-3358
cast	-3359
upload	-3360
Or	-3361
▁bar	-3362
scri	-3363
▁random	-3364
item	-3365
▁aggregate	-3366
▁series	-3367
▁examples	-3368
▁ability	-3369
▁Value	-3370
▁skills	-3371
Fil	-3372
▁dict	-3373
▁allows	-3374
▁Also	-3375
▁pressure	-3376
apan	-3377
▁stat	-3378
75	-3379
▁Comm	-3380
▁materials	-3381
Ext	-3382
ney	-3383
▁practice	-3384
ermine	-3385
▁Fl	-3386
▁political	-3387
▁write	-3388
▁characters	-3389
▁mind	-3390
label	-3391
icies	-3392
▁Id	-3393
Version	-3394
▁effective	-3395
ports	-3396
NA	-3397
▁label	-3398
gener	-3399
exception	-3400
▁Ac	-3401
Message	-3402
only	-3403
▁increased	-3404
del	-3405
rieved	-3406
irus	-3407
▁money	-3408
'}	-3409
Code	-3410
sg	-3411
▁forms	-3412
rip	-3413
ained	-3414
▁ign	-3415
▁student	-3416
oll	-3417
uel	-3418
ese	-3419
▁news	-3420
▁fire	-3421
35	-3422
▁decl	-3423
▁fund	-3424
▁half	-3425
ube	-3426
▁opportun	-3427
top	-3428
eline	-3429
▁price	-3430
oved	-3431
▁introdu	-3432
xx	-3433
▁Most	-3434
'))	-3435
▁40	-3436
▁10,	-3437
sets	-3438
▁defined	-3439
▁force	-3440
▁comes	-3441
▁greater	-3442
hood	-3443
▁Only	-3444
36	-3445
oke	-3446
▁idea	-3447
▁gas	-3448
clud	-3449
fort	-3450
Pr	-3451
▁almost	-3452
▁healthy	-3453
▁fig	-3454
▁online	-3455
▁complete	-3456
▁csv	-3457
▁close	-3458
▁confirmation	-3459
▁allowed	-3460
▁concept	-3461
▁famil	-3462
ambda	-3463
▁section	-3464
▁experi	-3465
▁produce	-3466
State	-3467
▁proper	-3468
gorithm	-3469
approved	-3470
▁attempt	-3471
EL	-3472
▁lines	-3473
▁Data	-3474
▁stream	-3475
▁assess	-3476
▁sources	-3477
active	-3478
Create	-3479
21	-3480
▁More	-3481
ulti	-3482
▁mach	-3483
▁commit	-3484
▁Cons	-3485
▁understanding	-3486
link	-3487
conds	-3488
90	-3489
▁exercis	-3490
▁issue	-3491
▁whose	-3492
related	-3493
▁agre	-3494
▁prote	-3495
rypt	-3496
▁analy	-3497
known	-3498
iers	-3499
▁tree	-3500
▁diet	-3501
Join	-3502
encies	-3503
▁ax	-3504
▁div	-3505
hib	-3506
▁autom	-3507
▁tax	-3508
▁appear	-3509
▁months	-3510
result	-3511
▁sequ	-3512
▁His	-3513
▁ensure	-3514
TYPE	-3515
Target	-3516
▁Me	-3517
select	-3518
▁fish	-3519
▁apply	-3520
service	-3521
ault	-3522
▁metadata	-3523
eter	-3524
erved	-3525
▁claim	-3526
▁saf	-3527
▁green	-3528
▁pie	-3529
▁entity	-3530
Form	-3531
▁determin	-3532
▁expression	-3533
▁took	-3534
Output	-3535
▁visit	-3536
'\	-3537
▁My	-3538
bre	-3539
▁parents	-3540
oon	-3541
▁ever	-3542
▁economic	-3543
agination	-3544
▁approach	-3545
▁images	-3546
▁bal	-3547
▁bill	-3548
▁GL	-3549
_11	-3550
ixed	-3551
ensive	-3552
An	-3553
admin	-3554
board	-3555
▁session	-3556
rapy	-3557
CL	-3558
Object	-3559
grams	-3560
Calcul	-3561
Security	-3562
▁sat	-3563
▁Py	-3564
server	-3565
PO	-3566
▁primary	-3567
▁factors	-3568
▁dog	-3569
▁share	-3570
▁projects	-3571
tore	-3572
▁Am	-3573
earch	-3574
▁hom	-3575
ignment	-3576
▁Part	-3577
options	-3578
▁existing	-3579
76	-3580
uly	-3581
▁circ	-3582
itation	-3583
CON	-3584
▁features	-3585
▁Here	-3586
▁delete	-3587
▁external	-3588
ike	-3589
true	-3590
▁reading	-3591
uple	-3592
▁shown	-3593
▁install	-3594
▁modern	-3595
▁Your	-3596
▁Japan	-3597
▁camp	-3598
▁detect	-3599
▁positive	-3600
▁module	-3601
works	-3602
▁written	-3603
ounter	-3604
▁map	-3605
▁django	-3606
▁sex	-3607
connect	-3608
[:	-3609
▁Cloud	-3610
▁popular	-3611
▁shows	-3612
elling	-3613
itary	-3614
ancial	-3615
▁taking	-3616
▁conduct	-3617
▁Rep	-3618
Head	-3619
istry	-3620
akes	-3621
ground	-3622
Case	-3623
▁Canad	-3624
▁throughout	-3625
▁consist	-3626
Tag	-3627
▁fun	-3628
address	-3629
▁Min	-3630
01","	-3631
▁scre	-3632
exports	-3633
evt	-3634
31"},"	-3635
":"2026-07-01","	-3636
ervation	-3637
▁float	-3638
rand	-3639
▁anc	-3640
▁sense	-3641
ias	-3642
erred	-3643
ocation	-3644
":10	-3645
":10},"	-3646
sor	-3647
▁Although	-3648
napsh	-3649
used	-3650
tx	-3651
▁thing	-3652
"]},"	-3653
iance	-3654
_10","	-3655
▁Instit	-3656
_11"]},"	-3657
tag	-3658
raise	-3659
number	-3660
▁computer	-3661
55	-3662
▁Research	-3663
arr	-3664
Joining	-3665
15:00:00+05:30	-3666
aff	-3667
▁basic	-3668
▁Tw	-3669
▁User	-3670
erous	-3671
24","	-3672
":"2026-07-24","	-3673
."},"	-3674
▁essential	-3675
Col	-3676
▁liter	-3677
oly	-3678
▁Read	-3679
▁webs	-3680
[0-9	-3681
vey	-3682
▁began	-3683
dered	-3684
▁deep	-3685
▁explode	-3686
▁exam	-3687
▁music	-3688
▁dim	-3689
MS	-3690
▁Pr	-3691
}}]	-3692
hy	-3693
ervices	-3694
▁meaning	-3695
product	-3696
▁increasing	-3697
38	-3698
▁bit	-3699
▁Ed	-3700
fect	-3701
42","	-3702
_1042","	-3703
rial	-3704
▁emer	-3705
Instance	-3706
_210	-3707
ederal	-3708
_210"},"	-3709
fix	-3710
":20	-3711
▁xml	-3712
instances	-3713
aches	-3714
func	-3715
▁Trans	-3716
":20},"	-3717
▁Jew	-3718
▁Art	-3719
▁heat	-3720
▁hold	-3721
DB	-3722
WS	-3723
▁store	-3724
ufact	-3725
▁bact	-3726
Role	-3727
▁sample	-3728
ming	-3729
acity	-3730
ana	-3731
▁11	-3732
Arn	-3733
erve	-3734
▁matter	-3735
▁individuals	-3736
▁draw	-3737
1_	-3738
room	-3739
▁British	-3740
▁"4	-3741
▁navigation	-3742
abit	-3743
▁predict	-3744
▁chemical	-3745
▁temperature	-3746
EST	-3747
ternet	-3748
▁empt	-3749
gs	-3750
▁received	-3751
pc	-3752
▁private	-3753
esc	-3754
omin	-3755
▁takes	-3756
rought	-3757
ulations	-3758
▁determine	-3759
reng	-3760
atives	-3761
▁root	-3762
params	-3763
▁respect	-3764
can	-3765
ades	-3766
oring	-3767
▁easy	-3768
▁face	-3769
▁safe	-3770
core	-3771
emic	-3772
Sh	-3773
▁frame	-3774
▁mode	-3775
▁viol	-3776
pat	-3777
▁Count	-3778
bes	-3779
ux	-3780
▁schools	-3781
▁Service	-3782
etimes	-3783
etic	-3784
author	-3785
▁estim	-3786
resource	-3787
tty	-3788
rl	-3789
▁profession	-3790
atively	-3791
▁sleep	-3792
ament	-3793
▁identity	-3794
▁Pre	-3795
down	-3796
28	-3797
▁Red	-3798
MM	-3799
▁From	-3800
ty	-3801
range	-3802
▁School	-3803
▁impl	-3804
iam	-3805
anies	-3806
anging	-3807
cket	-3808
indows	-3809
▁travel	-3810
box	-3811
amm	-3812
stra	-3813
▁heav	-3814
Doc	-3815
▁causes	-3816
▁mechan	-3817
match	-3818
▁Type	-3819
pen	-3820
▁squ	-3821
▁caused	-3822
▁applied	-3823
▁assum	-3824
0,0,	-3825
▁Will	-3826
▁society	-3827
▁correspon	-3828
next	-3829
aises	-3830
"),	-3831
aly	-3832
▁Set	-3833
cape	-3834
](	-3835
▁directory	-3836
Configuration	-3837
▁slow	-3838
DO	-3839
escribe	-3840
▁industry	-3841
3)	-3842
▁According	-3843
▁directly	-3844
▁Co	-3845
just	-3846
▁designed	-3847
▁simply	-3848
aset	-3849
session	-3850
▁benefits	-3851
▁diagn	-3852
gu	-3853
CI	-3854
SON	-3855
het	-3856
44	-3857
▁doing	-3858
▁database	-3859
▁Des	-3860
resents	-3861
Reg	-3862
▁der	-3863
▁rules	-3864
▁fem	-3865
Sign	-3866
Det	-3867
▁II	-3868
igr	-3869
unch	-3870
▁electric	-3871
▁template	-3872
▁Now	-3873
▁programs	-3874
>,	-3875
last	-3876
duc	-3877
▁drive	-3878
▁threat	-3879
▁mock	-3880
Google	-3881
lines	-3882
iff	-3883
▁via	-3884
▁empty	-3885
▁lives	-3886
ipal	-3887
hing	-3888
avor	-3889
▁Sim	-3890
domain	-3891
▁quant	-3892
▁reported	-3893
datetime	-3894
▁Austral	-3895
▁outside	-3896
eries	-3897
▁seem	-3898
▁sometimes	-3899
iet	-3900
wid	-3901
▁named	-3902
cell	-3903
gar	-3904
close	-3905
Server	-3906
▁convert	-3907
▁variety	-3908
▁daily	-3909
idden	-3910
ifest	-3911
▁tensor	-3912
izations	-3913
All	-3914
▁First	-3915
>.	-3916
ronic	-3917
izes	-3918
▁surv	-3919
▁expect	-3920
▁wild	-3921
Sub	-3922
Calculates	-3923
ATION	-3924
ynam	-3925
▁started	-3926
▁aw	-3927
▁progress	-3928
QU	-3929
dom	-3930
We	-3931
▁infect	-3932
▁5,	-3933
▁13	-3934
ictionary	-3935
▁appropri	-3936
▁cross	-3937
rict	-3938
=[	-3939
256	-3940
lin	-3941
▁farm	-3942
▁THE	-3943
module	-3944
77	-3945
▁distributed	-3946
▁pack	-3947
imately	-3948
▁led	-3949
▁Pres	-3950
><	-3951
pha	-3952
ership	-3953
Access	-3954
▁environmental	-3955
ANT	-3956
Spec	-3957
▁earth	-3958
rench	-3959
▁meet	-3960
ricult	-3961
GL	-3962
▁Science	-3963
▁Jan	-3964
pref	-3965
▁hot	-3966
root	-3967
ensity	-3968
▁season	-3969
▁pair	-3970
Info	-3971
▁India	-3972
keys	-3973
App	-3974
▁constant	-3975
▁track	-3976
▁independ	-3977
▁contribut	-3978
attle	-3979
icode	-3980
86	-3981
▁records	-3982
▁believe	-3983
▁minutes	-3984
▁requires	-3985
▁ep	-3986
oes	-3987
opyright	-3988
1/	-3989
Log	-3990
▁eat	-3991
▁game	-3992
▁HTTP	-3993
ims	-3994
▁King	-3995
nov	-3996
Base	-3997
vere	-3998
covery	-3999
ugg	-4000
▁member	-4001
edia	-4002
▁passed	-4003
▁administ	-4004
▁China	-4005
▁fru	-4006
▁4,	-4007
▁produced	-4008
▁third	-4009
Dev	-4010
otal	-4011
entry	-4012
▁inside	-4013
location	-4014
▁culture	-4015
erial	-4016
▁Successful	-4017
▁memory	-4018
ulate	-4019
▁spread	-4020
[1]	-4021
▁Each	-4022
▁involved	-4023
▁reference	-4024
29	-4025
▁helps	-4026
uff	-4027
▁currently	-4028
NS	-4029
pped	-4030
▁mag	-4031
lands	-4032
▁pict	-4033
▁minLength	-4034
▁carbon	-4035
▁Ant	-4036
▁remove	-4037
▁Comp	-4038
FA	-4039
Met	-4040
vis	-4041
vest	-4042
▁wall	-4043
mes	-4044
▁exact	-4045
▁difference	-4046
▁performance	-4047
Input	-4048
▁card	-4049
▁containing	-4050
▁creating	-4051
Auth	-4052
ridge	-4053
▁Rev	-4054
▁attribute	-4055
account	-4056
force	-4057
ele	-4058
rast	-4059
▁volume	-4060
▁useful	-4061
▁late	-4062
▁24	-4063
▁coordin	-4064
iforn	-4065
▁altern	-4066
asons	-4067
▁love	-4068
▁looking	-4069
ils	-4070
▁'''	-4071
▁bad	-4072
▁transl	-4073
VER	-4074
▁setting	-4075
▁organization	-4076
▁Services	-4077
delete	-4078
filename	-4079
▁getting	-4080
▁Center	-4081
Ident	-4082
expected	-4083
store	-4084
▁larger	-4085
ocks	-4086
ellow	-4087
Mod	-4088
▁Cor	-4089
▁bound	-4090
▁distribution	-4091
initions	-4092
▁attention	-4093
▁Man	-4094
▁dire	-4095
▁logging	-4096
▁cluster	-4097
▁encour	-4098
▁scientists	-4099
▁dtype	-4100
irtual	-4101
▁manufact	-4102
gment	-4103
ided	-4104
Update	-4105
▁probably	-4106
icated	-4107
66	-4108
▁multi	-4109
ster	-4110
{'	-4111
▁tools	-4112
onstr	-4113
▁ir	-4114
▁generally	-4115
▁got	-4116
Invalid	-4117
aling	-4118
▁distance	-4119
uild	-4120
▁devices	-4121
▁AR	-4122
▁Ste	-4123
pack	-4124
▁movement	-4125
vari	-4126
random	-4127
▁complet	-4128
▁info	-4129
Acc	-4130
dro	-4131
uous	-4132
▁permissions	-4133
▁scale	-4134
aign	-4135
▁Devel	-4136
▁El	-4137
ban	-4138
MA	-4139
ifornia	-4140
TO	-4141
west	-4142
pop	-4143
▁ec	-4144
zone	-4145
▁Optional	-4146
ech	-4147
▁'%	-4148
abetes	-4149
ography	-4150
projects	-4151
gy	-4152
▁poor	-4153
▁particularly	-4154
Is	-4155
atalog	-4156
▁immedi	-4157
▁requests	-4158
cache	-4159
▁cover	-4160
sec	-4161
▁developing	-4162
napshot	-4163
▁safety	-4164
▁channel	-4165
▁Key	-4166
property	-4167
▁inj	-4168
import	-4169
▁Sm	-4170
▁sect	-4171
▁factor	-4172
▁streng	-4173
▁teachers	-4174
▁damage	-4175
▁serious	-4176
oices	-4177
▁ideas	-4178
▁uniqueItems	-4179
PC	-4180
▁lack	-4181
▁therefore	-4182
▁ut	-4183
oad	-4184
45	-4185
▁prep	-4186
settings	-4187
allow	-4188
Page	-4189
▁psych	-4190
▁"1	-4191
▁rout	-4192
opes	-4193
icine	-4194
▁updated	-4195
DI	-4196
ees	-4197
apter	-4198
TH	-4199
oration	-4200
urs	-4201
▁emot	-4202
▁Note	-4203
▁financial	-4204
ateway	-4205
network	-4206
▁held	-4207
▁capt	-4208
▁vers	-4209
main	-4210
▁Att	-4211
reen	-4212
▁feature	-4213
▁feet	-4214
▁growing	-4215
▁und	-4216
beta	-4217
uate	-4218
▁manage	-4219
▁forest	-4220
▁running	-4221
79	-4222
▁sea	-4223
▁mer	-4224
▁foods	-4225
]{	-4226
cles	-4227
▁ago	-4228
▁tro	-4229
▁front	-4230
▁ten	-4231
cher	-4232
iting	-4233
▁earli	-4234
▁har	-4235
ino	-4236
▁animal	-4237
tests	-4238
▁Aug	-4239
current	-4240
umb	-4241
▁Our	-4242
▁sust	-4243
where	-4244
rieves	-4245
ulated	-4246
▁center	-4247
▁ValueError	-4248
▁password	-4249
note	-4250
▁reli	-4251
▁investment	-4252
▁patient	-4253
▁Educ	-4254
patch	-4255
etwork	-4256
▁1:	-4257
▁Pol	-4258
▁equ	-4259
FT	-4260
uary	-4261
▁answer	-4262
▁instit	-4263
na	-4264
vant	-4265
▁UN	-4266
Trans	-4267
PRO	-4268
▁4.	-4269
▁books	-4270
▁Since	-4271
▁attack	-4272
▁rates	-4273
istribut	-4274
anning	-4275
(1,	-4276
bor	-4277
cp	-4278
vention	-4279
lished	-4280
▁someone	-4281
Ad	-4282
▁wood	-4283
▁night	-4284
▁functions	-4285
df	-4286
▁During	-4287
85	-4288
▁thus	-4289
ocket	-4290
Def	-4291
0)	-4292
▁mother	-4293
see	-4294
Number	-4295
Run	-4296
block	-4297
irit	-4298
▁hor	-4299
gers	-4300
ayer	-4301
▁limited	-4302
\\	-4303
▁starting	-4304
EXT	-4305
▁demonstr	-4306
Ent	-4307
▁birth	-4308
▁broad	-4309
▁send	-4310
▁easily	-4311
ride	-4312
▁challeng	-4313
▁Inst	-4314
]]	-4315
has	-4316
bin	-4317
assertR	-4318
enced	-4319
▁sites	-4320
copy	-4321
pth	-4322
iny	-4323
▁veh	-4324
▁offer	-4325
Fr	-4326
▁fit	-4327
▁Cur	-4328
TestCase	-4329
hentication	-4330
▁compared	-4331
ancy	-4332
▁supply	-4333
▁graph	-4334
AA	-4335
▁Russ	-4336
children	-4337
:`	-4338
▁stock	-4339
▁beginning	-4340
▁("	-4341
▁actual	-4342
▁website	-4343
GET	-4344
unit	-4345
▁cred	-4346
▁headers	-4347
)))	-4348
roy	-4349
anks	-4350
(_	-4351
local	-4352
long	-4353
mock	-4354
AME	-4355
▁testing	-4356
▁virus	-4357
OS	-4358
strict	-4359
▁sound	-4360
500	-4361
sites	-4362
1':	-4363
▁places	-4364
▁veget	-4365
▁concent	-4366
iven	-4367
▁accur	-4368
▁international	-4369
uman	-4370
Class	-4371
▁eth	-4372
dtype	-4373
▁deb	-4374
ARN	-4375
rome	-4376
onom	-4377
▁'200	-4378
▁annual	-4379
gl	-4380
▁harm	-4381
▁warm	-4382
▁California	-4383
▁town	-4384
ieved	-4385
▁stre	-4386
▁parser	-4387
weight	-4388
▁Pri	-4389
'}),	-4390
▁metric	-4391
▁decre	-4392
▁entry	-4393
recated	-4394
▁recommend	-4395
▁mental	-4396
ategories	-4397
▁util	-4398
▁communities	-4399
▁Indian	-4400
▁actions	-4401
▁msg	-4402
▁compar	-4403
▁companies	-4404
▁transport	-4405
aj	-4406
▁typically	-4407
▁pan	-4408
▁meeting	-4409
ping	-4410
ality	-4411
▁kids	-4412
ashing	-4413
▁yield	-4414
▁foot	-4415
▁cit	-4416
erate	-4417
▁cel	-4418
▁Lear	-4419
▁traditional	-4420
▁speed	-4421
▁dang	-4422
CR	-4423
▁0.0	-4424
▁sil	-4425
Text	-4426
▁Check	-4427
fail	-4428
cs	-4429
Operation	-4430
queue	-4431
}},	-4432
▁fast	-4433
haps	-4434
useum	-4435
section	-4436
▁changed	-4437
▁generate	-4438
95	-4439
unk	-4440
exec	-4441
apping	-4442
Result	-4443
▁argument	-4444
▁largest	-4445
users	-4446
assertRaises	-4447
▁messages	-4448
▁receive	-4449
▁sal	-4450
▁quite	-4451
▁latest	-4452
rong	-4453
▁column	-4454
▁described	-4455
urg	-4456
▁Project	-4457
sort	-4458
▁aspect	-4459
▁theory	-4460
lying	-4461
▁vacc	-4462
Filter	-4463
▁appropriate	-4464
uk	-4465
End	-4466
grad	-4467
▁tend	-4468
▁Even	-4469
hether	-4470
▁proced	-4471
inct	-4472
▁European	-4473
▁central	-4474
);	-4475
Dis	-4476
ula	-4477
▁seems	-4478
▁thous	-4479
▁save	-4480
assertTrue	-4481
ros	-4482
OL	-4483
cean	-4484
▁expert	-4485
▁situation	-4486
▁instances	-4487
▁quickly	-4488
inder	-4489
▁leading	-4490
▁Auth	-4491
▁Provides	-4492
igration	-4493
▁note	-4494
UP	-4495
▁Rem	-4496
▁labels	-4497
win	-4498
ille	-4499
▁height	-4500
compute	-4501
▁nation	-4502
▁French	-4503
▁official	-4504
-3	-4505
UM	-4506
illing	-4507
▁monitor	-4508
▁purpose	-4509
env	-4510
▁Copyright	-4511
ugin	-4512
callback	-4513
▁obj	-4514
undred	-4515
(1)	-4516
▁Sw	-4517
frame	-4518
▁interp	-4519
orders	-4520
template	-4521
▁reve	-4522
▁Valid	-4523
▁Lab	-4524
▁room	-4525
▁doctor	-4526
▁Institute	-4527
▁History	-4528
▁trees	-4529
▁applications	-4530
roid	-4531
▁bab	-4532
eks	-4533
mitted	-4534
▁March	-4535
zz	-4536
▁Fin	-4537
direct	-4538
▁civil	-4539
▁established	-4540
▁TO	-4541
▁ones	-4542
▁although	-4543
▁dry	-4544
▁Jes	-4545
odies	-4546
▁German	-4547
ITY	-4548
▁cat	-4549
▁behind	-4550
ALL	-4551
▁scientific	-4552
▁forward	-4553
▁west	-4554
▁mom	-4555
▁profile	-4556
▁ang	-4557
▁located	-4558
tem	-4559
▁tiss	-4560
straint	-4561
ulf	-4562
otes	-4563
Headers	-4564
▁Because	-4565
▁mount	-4566
▁controll	-4567
▁creation	-4568
▁aff	-4569
▁den	-4570
▁Then	-4571
▁Oct	-4572
▁historical	-4573
▁negative	-4574
▁ST	-4575
▁June	-4576
▁hands	-4577
orig	-4578
atically	-4579
▁Department	-4580
ranch	-4581
▁military	-4582
olar	-4583
▁road	-4584
eration	-4585
▁reflect	-4586
▁flu	-4587
▁expand	-4588
▁diseases	-4589
▁storage	-4590
Link	-4591
iency	-4592
words	-4593
cil	-4594
Account	-4595
▁Version	-4596
▁isn	-4597
itable	-4598
▁vit	-4599
▁applic	-4600
▁▁▁▁▁▁▁▁▁▁▁▁▁	-4601
yl	-4602
dul	-4603
Gener	-4604
stitution	-4605
▁currency	-4606
').	-4607
▁Update	-4608
▁went	-4609
****	-4610
ificate	-4611
▁Over	-4612
protocol	-4613
▁Invalid	-4614
▁Har	-4615
▁Associ	-4616
▁highly	-4617
debug	-4618
▁lost	-4619
▁humans	-4620
make	-4621
Valid	-4622
lict	-4623
essor	-4624
obile	-4625
▁Her	-4626
▁choose	-4627
▁International	-4628
bing	-4629
ESS	-4630
▁achieve	-4631
▁eye	-4632
▁critical	-4633
▁families	-4634
▁repl	-4635
▁(20	-4636
▁layer	-4637
fn	-4638
▁platform	-4639
▁microsoft	-4640
case	-4641
▁compet	-4642
37	-4643
▁poly	-4644
▁exercise	-4645
Credential	-4646
▁wide	-4647
▁steps	-4648
Extended	-4649
▁towards	-4650
▁'/	-4651
▁Pa	-4652
▁cls	-4653
ceeded	-4654
ellig	-4655
▁solar	-4656
▁Access	-4657
▁severe	-4658
▁errors	-4659
Fetch	-4660
▁Aut	-4661
▁sold	-4662
▁Apr	-4663
DS	-4664
HT	-4665
▁protection	-4666
-12	-4667
cls	-4668
▁(200	-4669
istant	-4670
▁influence	-4671
▁tim	-4672
▁soon	-4673
Aut	-4674
▁solution	-4675
▁mis	-4676
null	-4677
sect	-4678
td	-4679
ham	-4680
▁syn	-4681
▁Av	-4682
▁Found	-4683
Client	-4684
▁workers	-4685
▁stage	-4686
▁generated	-4687
abs	-4688
fit	-4689
pite	-4690
icate	-4691
▁prefix	-4692
▁decision	-4693
stances	-4694
▁labor	-4695
press	-4696
▁leave	-4697
▁Sub	-4698
▁topic	-4699
mem	-4700
iques	-4701
).",	-4702
▁fight	-4703
fol	-4704
▁goal	-4705
▁json	-4706
▁transform	-4707
oolean	-4708
och	-4709
ested	-4710
▁poll	-4711
▁Python	-4712
▁protein	-4713
culate	-4714
unt	-4715
outhern	-4716
PA	-4717
▁flo	-4718
joy	-4719
1:	-4720
▁Mus	-4721
Url	-4722
isms	-4723
ilos	-4724
▁cou	-4725
▁'200':	-4726
Query	-4727
▁Max	-4728
▁suff	-4729
▁stri	-4730
▁becomes	-4731
▁Why	-4732
00,	-4733
prefix	-4734
96	-4735
▁cop	-4736
▁protocol	-4737
▁0:	-4738
▁DB	-4739
▁Dav	-4740
life	-4741
98	-4742
lock	-4743
sign	-4744
▁stay	-4745
▁prop	-4746
▁sus	-4747
▁Delete	-4748
uries	-4749
▁Sept	-4750
▁costs	-4751
▁fat	-4752
▁expos	-4753
rices	-4754
▁lands	-4755
iot	-4756
▁miles	-4757
▁nothing	-4758
Event	-4759
zer	-4760
std	-4761
▁Of	-4762
conf	-4763
▁capital	-4764
▁mention	-4765
atitude	-4766
▁sustain	-4767
abilities	-4768
amer	-4769
▁clin	-4770
▁egg	-4771
Source	-4772
▁thinking	-4773
▁anything	-4774
ying	-4775
itect	-4776
train	-4777
2_	-4778
tr	-4779
ipe	-4780
inese	-4781
27	-4782
0':	-4783
Path	-4784
]+	-4785
▁comment	-4786
▁filename	-4787
▁variable	-4788
▁variables	-4789
▁DE	-4790
ools	-4791
▁Inter	-4792
▁Tra	-4793
▁August	-4794
web	-4795
▁Africa	-4796
>.</	-4797
Signature	-4798
enge	-4799
▁City	-4800
▁purch	-4801
ologies	-4802
▁African	-4803
ocal	-4804
country	-4805
▁brought	-4806
▁teaching	-4807
▁Rob	-4808
▁math	-4809
▁hyp	-4810
▁north	-4811
▁Guide	-4812
(0,	-4813
sa	-4814
ares	-4815
▁script	-4816
With	-4817
password	-4818
Delete	-4819
▁box	-4820
▁196	-4821
▁conflict	-4822
▁sequence	-4823
▁ce	-4824
▁infection	-4825
▁gard	-4826
▁datetime	-4827
first	-4828
Size	-4829
ii	-4830
▁Tr	-4831
username	-4832
▁processes	-4833
aks	-4834
▁General	-4835
2/	-4836
ica	-4837
▁Del	-4838
▁Char	-4839
▁bott	-4840
Groups	-4841
▁hundred	-4842
▁components	-4843
CC	-4844
▁double	-4845
▁middle	-4846
▁phone	-4847
Us	-4848
▁south	-4849
command	-4850
Sc	-4851
oauth	-4852
ival	-4853
Device	-4854
symbol	-4855
▁gives	-4856
orthern	-4857
initial	-4858
▁db	-4859
static	-4860
oded	-4861
cohol	-4862
▁Retrieved	-4863
0-9	-4864
▁policies	-4865
▁cri	-4866
▁nuc	-4867
Amazon	-4868
cover	-4869
Job	-4870
▁Output	-4871
NO	-4872
▁instr	-4873
pment	-4874
PT	-4875
▁speak	-4876
▁Christian	-4877
ira	-4878
▁bacteria	-4879
4":	-4880
▁..	-4881
▁prior	-4882
▁""}}},	-4883
▁Det	-4884
efore	-4885
▁weeks	-4886
▁regist	-4887
calendarView	-4888
hens	-4889
▁importance	-4890
▁NOT	-4891
No	-4892
▁sn	-4893
▁trig	-4894
▁entities	-4895
oted	-4896
▁pages	-4897
▁adults	-4898
▁ast	-4899
▁machine	-4900
DA	-4901
▁Bar	-4902
▁Day	-4903
▁ANY	-4904
ystem	-4905
▁acid	-4906
relation	-4907
QL	-4908
▁carry	-4909
common	-4910
hist	-4911
ober	-4912
ialog	-4913
▁detailed	-4914
non	-4915
▁scal	-4916
▁attributes	-4917
cor	-4918
iles	-4919
▁2.0	-4920
▁Gree	-4921
▁Govern	-4922
▁Sch	-4923
▁reach	-4924
ishing	-4925
elt	-4926
▁adapt	-4927
▁'480':	-4928
▁weather	-4929
identity	-4930
bal	-4931
Store	-4932
▁capacity	-4933
▁relative	-4934
▁basis	-4935
▁habit	-4936
▁suppl	-4937
▁Rel	-4938
▁Request	-4939
▁Just	-4940
▁Are	-4941
ym	-4942
rees	-4943
alking	-4944
▁arri	-4945
rm	-4946
craft	-4947
ondon	-4948
ULT	-4949
ync	-4950
▁component	-4951
▁everything	-4952
▁followed	-4953
▁replace	-4954
▁rapid	-4955
▁ord	-4956
▁April	-4957
▁providing	-4958
sm	-4959
hat	-4960
▁Required	-4961
pred	-4962
▁coast	-4963
▁Canada	-4964
▁ancient	-4965
____	-4966
reme	-4967
And	-4968
▁Em	-4969
yond	-4970
▁Cre	-4971
rated	-4972
▁enabled	-4973
IES	-4974
▁talk	-4975
2':	-4976
▁July	-4977
1',	-4978
▁High	-4979
▁params	-4980
▁weak	-4981
▁Ident	-4982
ico	-4983
clus	-4984
atur	-4985
zing	-4986
▁AND	-4987
▁leaves	-4988
▁recently	-4989
▁Mc	-4990
▁repe	-4991
▁dark	-4992
DD	-4993
arian	-4994
▁resid	-4995
upported	-4996
-5	-4997
▁Let	-4998
ographic	-4999
▁reasons	-5000
ava	-5001
▁Form	-5002
cap	-5003
ste	-5004
▁Techn	-5005
Algorithm	-5006
▁ult	-5007
width	-5008
▁January	-5009
▁agricult	-5010
▁communication	-5011
Parameter	-5012
headers	-5013
▁Chinese	-5014
▁establish	-5015
▁60	-5016
▁br	-5017
▁keys	-5018
▁Develop	-5019
▁remains	-5020
locations	-5021
Hand	-5022
hold	-5023
▁zone	-5024
Search	-5025
▁sugar	-5026
▁waste	-5027
▁older	-5028
▁beyond	-5029
▁friend	-5030
Max	-5031
▁enjoy	-5032
▁efforts	-5033
rep	-5034
▁Cong	-5035
▁smaller	-5036
As	-5037
▁Cour	-5038
Signed	-5039
▁demand	-5040
▁religious	-5041
▁Press	-5042
▁represents	-5043
udd	-5044
olic	-5045
▁jud	-5046
▁belong	-5047
▁ing	-5048
▁internal	-5049
real	-5050
▁nearly	-5051
[0].	-5052
▁approx	-5053
”.	-5054
▁mid	-5055
▁Jesus	-5056
▁train	-5057
lement	-5058
▁legal	-5059
▁mole	-5060
▁definition	-5061
▁fa	-5062
oday	-5063
prov	-5064
▁River	-5065
▁units	-5066
▁applicable	-5067
▁Once	-5068
▁classes	-5069
▁RE	-5070
10.	-5071
▁Education	-5072
header	-5073
▁shared	-5074
▁norm	-5075
▁otherwise	-5076
▁enter	-5077
ashington	-5078
▁identified	-5079
▁upper	-5080
rote	-5081
▁People	-5082
ester	-5083
Retrieves	-5084
ainer	-5085
▁colon	-5086
▁eyes	-5087
▁links	-5088
stack	-5089
▁pick	-5090
var	-5091
Node	-5092
ball	-5093
▁Select	-5094
▁Don	-5095
▁guid	-5096
▁2)	-5097
▁sorted	-5098
IB	-5099
ARR	-5100
▁Bo	-5101
multi	-5102
▁digital	-5103
▁beaut	-5104
ertain	-5105
Results	-5106
=1	-5107
ocr	-5108
▁cru	-5109
▁failed	-5110
Sha	-5111
aur	-5112
88	-5113
CS	-5114
▁Mark	-5115
▁failure	-5116
▁arguments	-5117
▁Information	-5118
▁cultural	-5119
Char	-5120
▁practices	-5121
rael	-5122
▁celeb	-5123
-20	-5124
▁grant	-5125
▁occurs	-5126
ingu	-5127
▁fuel	-5128
▁articles	-5129
▁saw	-5130
▁google	-5131
▁diabetes	-5132
▁vict	-5133
▁''	-5134
▁neigh	-5135
▁'481':	-5136
porary	-5137
▁explain	-5138
▁rare	-5139
▁visual	-5140
ners	-5141
▁affected	-5142
▁told	-5143
▁responsible	-5144
▁construction	-5145
KE	-5146
men	-5147
▁therapy	-5148
tered	-5149
▁deal	-5150
arnings	-5151
election	-5152
▁rat	-5153
▁Another	-5154
▁transfer	-5155
region	-5156
▁WIT	-5157
Address	-5158
SignedHeaders	-5159
ker	-5160
icks	-5161
▁Met	-5162
▁himself	-5163
▁direction	-5164
Image	-5165
water	-5166
▁Park	-5167
▁tf	-5168
▁hope	-5169
▁commer	-5170
▁Feb	-5171
▁win	-5172
olve	-5173
▁teacher	-5174
▁fully	-5175
▁construct	-5176
more	-5177
UID	-5178
▁advant	-5179
lor	-5180
(1	-5181
hest	-5182
▁Americans	-5183
▁0)	-5184
eval	-5185
pa	-5186
anguages	-5187
▁removed	-5188
▁Environment	-5189
▁Commun	-5190
46	-5191
batch	-5192
color	-5193
▁cool	-5194
Action	-5195
▁interval	-5196
▁divid	-5197
▁forces	-5198
▁row	-5199
▁behavi	-5200
rab	-5201
▁Sk	-5202
▁ice	-5203
▁Exp	-5204
▁San	-5205
▁seconds	-5206
▁documentation	-5207
He	-5208
lic	-5209
▁api	-5210
▁(1	-5211
▁5.	-5212
anish	-5213
▁trade	-5214
▁earlier	-5215
future	-5216
mode	-5217
▁raw	-5218
cember	-5219
▁Arch	-5220
▁String	-5221
normal	-5222
▁finding	-5223
▁techniques	-5224
char	-5225
▁appears	-5226
▁benefit	-5227
▁perfect	-5228
▁Bi	-5229
▁12,	-5230
_.	-5231
uge	-5232
column	-5233
▁interpret	-5234
tw	-5235
achment	-5236
PS	-5237
AGE	-5238
▁sess	-5239
▁Time	-5240
▁completed	-5241
eding	-5242
▁completely	-5243
▁regions	-5244
▁Any	-5245
▁federal	-5246
inding	-5247
▁wait	-5248
▁pet	-5249
▁sec	-5250
swith	-5251
▁trying	-5252
▁coll	-5253
▁managed	-5254
▁shall	-5255
ouncil	-5256
▁execut	-5257
refe	-5258
▁died	-5259
▁eating	-5260
(*	-5261
▁binary	-5262
▁England	-5263
▁born	-5264
estic	-5265
▁release	-5266
▁flag	-5267
tensor	-5268
▁father	-5269
bot	-5270
olute	-5271
volume	-5272
▁kwargs	-5273
▁du	-5274
▁asked	-5275
bool	-5276
▁laws	-5277
▁'\	-5278
▁PRO	-5279
▁son	-5280
▁emb	-5281
▁citiz	-5282
▁differences	-5283
▁spirit	-5284
▁2020	-5285
iate	-5286
▁["	-5287
0,000	-5288
▁President	-5289
regn	-5290
▁rot	-5291
▁hour	-5292
▁September	-5293
ovember	-5294
▁convers	-5295
▁warning	-5296
▁Washington	-5297
▁restrict	-5298
iar	-5299
▁synt	-5300
▁surround	-5301
▁standards	-5302
▁cities	-5303
▁patterns	-5304
ris	-5305
▁degree	-5306
▁dead	-5307
▁container	-5308
drive	-5309
▁consequ	-5310
▁reports	-5311
▁"\	-5312
▁anti	-5313
▁q	-5314
ancer	-5315
▁mix	-5316
house	-5317
manager	-5318
Sche	-5319
▁axis	-5320
pk	-5321
▁extrem	-5322
▁Water	-5323
poses	-5324
athe	-5325
sim	-5326
oles	-5327
called	-5328
▁hous	-5329
▁thread	-5330
▁Ke	-5331
▁East	-5332
▁Israel	-5333
meta	-5334
RI	-5335
▁score	-5336
▁"40	-5337
▁Inc	-5338
▁Post	-5339
Return	-5340
▁notice	-5341
Print	-5342
▁beg	-5343
eric	-5344
save	-5345
replace	-5346
▁October	-5347
▁balance	-5348
ryption	-5349
▁choice	-5350
▁blue	-5351
lt	-5352
IONS	-5353
▁Open	-5354
ospital	-5355
road	-5356
▁Number	-5357
▁charge	-5358
UB	-5359
▁campaign	-5360
▁Great	-5361
▁summer	-5362
ibly	-5363
▁Lib	-5364
▁goes	-5365
cel	-5366
FOR	-5367
▁Black	-5368
job	-5369
Inter	-5370
▁roll	-5371
▁Journal	-5372
▁197	-5373
▁mut	-5374
▁tur	-5375
isher	-5376
▁didn	-5377
▁const	-5378
▁signal	-5379
You	-5380
▁11,	-5381
▁remain	-5382
▁Class	-5383
)),	-5384
▁jobs	-5385
▁JSON	-5386
▁batch	-5387
mosp	-5388
▁corresponding	-5389
256'	-5390
▁Mod	-5391
▁everyone	-5392
expand	-5393
organ	-5394
pir	-5395
aved	-5396
▁gain	-5397
▁occup	-5398
▁PO	-5399
▁scope	-5400
ATA	-5401
pay	-5402
enote	-5403
▁finally	-5404
,'	-5405
▁iter	-5406
▁selected	-5407
▁yourself	-5408
rical	-5409
▁placed	-5410
ailability	-5411
edom	-5412
connection	-5413
ague	-5414
▁planet	-5415
language	-5416
▁enable	-5417
▁former	-5418
metadata	-5419
icon	-5420
▁core	-5421
iples	-5422
▁opportunity	-5423
aa	-5424
itis	-5425
▁tour	-5426
scope	-5427
▁Val	-5428
▁Roman	-5429
▁window	-5430
nodes	-5431
dim	-5432
overnance	-5433
rupt	-5434
▁round	-5435
▁processing	-5436
SI	-5437
▁Fe	-5438
49	-5439
▁hydro	-5440
▁statement	-5441
isl	-5442
zip	-5443
▁woman	-5444
▁Pat	-5445
▁respons	-5446
▁equipment	-5447
▁surg	-5448
▁commonly	-5449
quire	-5450
▁incor	-5451
ABLE	-5452
▁separate	-5453
▁dictionary	-5454
▁recommended	-5455
NAME	-5456
▁board	-5457
▁>>>	-5458
Table	-5459
▁king	-5460
▁sets	-5461
ded	-5462
▁handle	-5463
Up	-5464
DF	-5465
ivery	-5466
▁offers	-5467
▁interesting	-5468
From	-5469
1234	-5470
▁exists	-5471
▁winter	-5472
▁Organ	-5473
IO	-5474
▁December	-5475
oe	-5476
egr	-5477
bose	-5478
▁fear	-5479
▁economy	-5480
▁assigned	-5481
▁cand	-5482
▁income	-5483
ORT	-5484
atin	-5485
▁gold	-5486
▁discovered	-5487
▁moving	-5488
Property	-5489
Rule	-5490
▁London	-5491
▁wrong	-5492
▁moment	-5493
▁cold	-5494
send	-5495
false	-5496
xi	-5497
src	-5498
▁native	-5499
▁refer	-5500
▁permission	-5501
▁Mex	-5502
▁hon	-5503
offset	-5504
▁Make	-5505
▁destroy	-5506
req	-5507
writ	-5508
lower	-5509
▁agreed	-5510
▁inform	-5511
annels	-5512
igen	-5513
▁presence	-5514
▁pool	-5515
▁professional	-5516
▁wind	-5517
phas	-5518
wide	-5519
arter	-5520
▁measures	-5521
-19	-5522
▁letter	-5523
_(	-5524
MO	-5525
Fault	-5526
▁Church	-5527
▁performed	-5528
acts	-5529
▁patch	-5530
▁'.	-5531
▁subsequ	-5532
VID	-5533
errors	-5534
AND	-5535
ctors	-5536
aled	-5537
▁burn	-5538
cisions	-5539
GoogleCloud	-5540
bi	-5541
▁wrote	-5542
▁investig	-5543
▁zero	-5544
▁sch	-5545
icens	-5546
Rem	-5547
LIC	-5548
strip	-5549
▁alone	-5550
▁reduced	-5551
▁gir	-5552
iated	-5553
Rev	-5554
▁November	-5555
▁Gen	-5556
bound	-5557
▁Internal	-5558
▁]	-5559
aters	-5560
▁birds	-5561
relations	-5562
custom	-5563
ouch	-5564
▁enh	-5565
▁rain	-5566
▁toward	-5567
ART	-5568
▁bra	-5569
▁ball	-5570
▁package	-5571
▁exposure	-5572
ifications	-5573
▁requested	-5574
////////	-5575
▁username	-5576
▁tensorflow	-5577
▁immediately	-5578
▁formed	-5579
▁chart	-5580
▁church	-5581
▁DNA	-5582
▁Thus	-5583
rt	-5584
wall	-5585
▁stories	-5586
▁County	-5587
▁Air	-5588
CP	-5589
▁calls	-5590
▁Action	-5591
▁strength	-5592
oom	-5593
Start	-5594
▁coming	-5595
CA	-5596
icit	-5597
element	-5598
▁powerful	-5599
▁Di	-5600
▁pow	-5601
▁swe	-5602
▁contract	-5603
look	-5604
osed	-5605
▁overall	-5606
▁interface	-5607
icker	-5608
▁continued	-5609
nam	-5610
▁watch	-5611
▁indicates	-5612
irs	-5613
oses	-5614
▁billion	-5615
workbook	-5616
▁findings	-5617
▁cache	-5618
▁upload	-5619
▁master	-5620
▁teeth	-5621
▁represented	-5622
ped	-5623
Integer	-5624
▁Public	-5625
▁Australia	-5626
▁evolution	-5627
▁tel	-5628
▁requirements	-5629
▁auto	-5630
Checks	-5631
▁majority	-5632
▁System	-5633
iat	-5634
▁21	-5635
ford	-5636
▁fair	-5637
▁drugs	-5638
00000000	-5639
▁alcohol	-5640
available	-5641
points	-5642
[0],	-5643
ipeline	-5644
▁figure	-5645
rief	-5646
Fe	-5647
Check	-5648
ruary	-5649
▁cook	-5650
▁piece	-5651
▁trust	-5652
)]	-5653
ires	-5654
▁download	-5655
▁genetic	-5656
▁Port	-5657
PRE	-5658
scription	-5659
▁connected	-5660
oder	-5661
cmd	-5662
▁vill	-5663
▁|-	-5664
semb	-5665
▁fruit	-5666
▁Def	-5667
rition	-5668
▁accounts	-5669
▁Code	-5670
▁House	-5671
▁extract	-5672
▁eight	-5673
▁deleted	-5674
▁adult	-5675
iences	-5676
▁Union	-5677
aren	-5678
▁mouth	-5679
Template	-5680
profile	-5681
ACT	-5682
▁Next	-5683
▁EX	-5684
▁gave	-5685
Governance	-5686
('/	-5687
-10	-5688
▁stra	-5689
alysis	-5690
contrib	-5691
ferences	-5692
parser	-5693
5)	-5694
▁philos	-5695
▁rich	-5696
▁efficient	-5697
emy	-5698
rant	-5699
▁Under	-5700
▁bot	-5701
▁offset	-5702
▁samples	-5703
Ph	-5704
olved	-5705
▁friends	-5706
▁participants	-5707
▁organizations	-5708
▁Germany	-5709
▁foreign	-5710
▁treated	-5711
ugh	-5712
▁AS	-5713
▁cast	-5714
▁joint	-5715
▁extension	-5716
▁locations	-5717
OG	-5718
▁UK	-5719
Dict	-5720
▁fresh	-5721
END	-5722
erest	-5723
ARRANT	-5724
04	-5725
ECT	-5726
"],	-5727
▁vert	-5728
▁Miss	-5729
▁gets	-5730
faces	-5731
▁architect	-5732
▁female	-5733
arily	-5734
RA	-5735
▁showed	-5736
▁Engine	-5737
▁Children	-5738
iring	-5739
▁bank	-5740
▁stored	-5741
▁nutri	-5742
▁combination	-5743
fin	-5744
▁invent	-5745
auto	-5746
▁conv	-5747
valent	-5748
▁pen	-5749
antic	-5750
▁Human	-5751
▁remember	-5752
uuid	-5753
▁tox	-5754
Rec	-5755
▁fet	-5756
▁Food	-5757
▁timestamp	-5758
▁generation	-5759
▁spring	-5760
forms	-5761
▁smo	-5762
▁perhaps	-5763
ogen	-5764
quota	-5765
▁situ	-5766
]:	-5767
osing	-5768
▁square	-5769
▁supports	-5770
isation	-5771
▁mal	-5772
▁Every	-5773
▁Colle	-5774
Read	-5775
▁sem	-5776
[2	-5777
VAL	-5778
acing	-5779
▁rise	-5780
▁teach	-5781
ado	-5782
▁giving	-5783
▁python	-5784
▁cycle	-5785
▁counter	-5786
▁Exception	-5787
enty	-5788
▁guide	-5789
▁pregn	-5790
▁mo	-5791
▁Whether	-5792
orge	-5793
▁Using	-5794
▁picture	-5795
vents	-5796
▁secret	-5797
Part	-5798
remove	-5799
▁Social	-5800
itter	-5801
▁games	-5802
▁staff	-5803
script	-5804
▁provider	-5805
Settings	-5806
▁destination	-5807
AF	-5808
▁atmosp	-5809
▁traffic	-5810
▁Please	-5811
▁illust	-5812
▁frequency	-5813
hash	-5814
▁David	-5815
elligence	-5816
ky	-5817
pective	-5818
▁challenge	-5819
▁195	-5820
east	-5821
▁exactly	-5822
compl	-5823
▁survey	-5824
angle	-5825
▁Program	-5826
▁Japanese	-5827
68	-5828
Scope	-5829
▁experim	-5830
▁resistance	-5831
enum	-5832
▁star	-5833
Default	-5834
▁'482':	-5835
▁party	-5836
▁Their	-5837
CK	-5838
help	-5839
▁ship	-5840
▁signs	-5841
mac	-5842
icates	-5843
▁Society	-5844
▁peace	-5845
▁immune	-5846
▁route	-5847
▁increases	-5848
URL	-5849
pool	-5850
blank	-5851
▁Prot	-5852
▁truth	-5853
sys	-5854
▁dynam	-5855
▁Sur	-5856
▁Internet	-5857
▁relevant	-5858
▁pp	-5859
asure	-5860
▁Phil	-5861
▁office	-5862
▁missing	-5863
▁cloud	-5864
▁worth	-5865
▁serve	-5866
Act	-5867
▁width	-5868
▁relatively	-5869
....	-5870
▁goals	-5871
PECI	-5872
▁compute	-5873
err	-5874
skip	-5875
ETTER	-5876
▁Association	-5877
▁insect	-5878
▁dro	-5879
------	-5880
▁please	-5881
mt	-5882
pping	-5883
produ	-5884
oreign	-5885
▁tissue	-5886
▁var	-5887
elines	-5888
uit	-5889
▁'20	-5890
ideos	-5891
▁highest	-5892
▁linked	-5893
▁worked	-5894
▁mission	-5895
▁La	-5896
▁Work	-5897
kens	-5898
4)	-5899
▁adopt	-5900
classes	-5901
▁belief	-5902
▁gene	-5903
messages	-5904
▁structures	-5905
Match	-5906
zy	-5907
▁imag	-5908
engine	-5909
aught	-5910
▁Rights	-5911
Prov	-5912
▁acad	-5913
▁spect	-5914
▁notes	-5915
▁matrix	-5916
▁2012	-5917
ResourceRole	-5918
axis	-5919
▁bottom	-5920
care	-5921
▁Fil	-5922
onal	-5923
▁[1,	-5924
▁keyword	-5925
ously	-5926
▁surpr	-5927
global	-5928
Index	-5929
▁emerg	-5930
▁tuple	-5931
rier	-5932
▁favor	-5933
samples	-5934
xiety	-5935
▁moved	-5936
II	-5937
▁App	-5938
gypt	-5939
using	-5940
▁happen	-5941
▁modified	-5942
CharField	-5943
▁Two	-5944
▁Example	-5945
HTTP	-5946
▁license	-5947
▁observed	-5948
/2	-5949
▁February	-5950
▁2010	-5951
▁customer	-5952
▁adjust	-5953
orial	-5954
▁nodes	-5955
47	-5956
la	-5957
▁Today	-5958
▁alternative	-5959
EO	-5960
▁cro	-5961
amily	-5962
▁educational	-5963
▁independent	-5964
▁Direct	-5965
▁background	-5966
▁collab	-5967
▁listed	-5968
cular	-5969
▁thousands	-5970
▁usage	-5971
Occ	-5972
▁race	-5973
▁France	-5974
ench	-5975
scale	-5976
▁bytes	-5977
▁duration	-5978
▁indicate	-5979
uses	-5980
usiness	-5981
▁LETTER	-5982
▁strugg	-5983
65	-5984
▁raised	-5985
▁classroom	-5986
▁Law	-5987
▁env	-5988
▁bodies	-5989
▁AWS	-5990
▁William	-5991
iful	-5992
FC	-5993
▁baby	-5994
▁plans	-5995
ulner	-5996
▁Prof	-5997
▁uuid	-5998
▁charg	-5999
▁Jewish	-6000
▁char	-6001
▁bucket	-6002
▁resulting	-6003
▁6,	-6004
▁Bel	-6005
achments	-6006
”,	-6007
▁Last	-6008
Assignment	-6009
▁experiment	-6010
▁15,	-6011
ructure	-6012
▁estimated	-6013
3':	-6014
▁ISO	-6015
▁compliance	-6016
▁credit	-6017
▁opportunities	-6018
▁properly	-6019
▁numpy	-6020
agram	-6021
▁illness	-6022
▁Pal	-6023
▁eventually	-6024
oting	-6025
raction	-6026
iant	-6027
rott	-6028
asion	-6029
▁describe	-6030
▁deprecated	-6031
iox	-6032
▁challenges	-6033
rum	-6034
unn	-6035
Task	-6036
role	-6037
month	-6038
▁payment	-6039
▁sym	-6040
child	-6041
▁languages	-6042
▁experiences	-6043
▁ready	-6044
GB	-6045
▁AD	-6046
pretty	-6047
▁river	-6048
▁extremely	-6049
IND	-6050
deed	-6051
ifying	-6052
xg	-6053
dist	-6054
▁phen	-6055
▁emissions	-6056
(?	-6057
Den	-6058
▁seed	-6059
stract	-6060
▁pal	-6061
icensed	-6062
▁purposes	-6063
mask	-6064
▁filters	-6065
▁effic	-6066
▁desired	-6067
▁hair	-6068
itionally	-6069
▁commercial	-6070
▁antib	-6071
▁song	-6072
▁af	-6073
▁Bra	-6074
▁previously	-6075
▁milk	-6076
inger	-6077
▁innov	-6078
hi	-6079
▁Western	-6080
▁determined	-6081
▁carried	-6082
▁export	-6083
▁shap	-6084
▁walk	-6085
urance	-6086
▁strategy	-6087
▁detail	-6088
▁dom	-6089
▁sell	-6090
▁parse	-6091
▁elim	-6092
height	-6093
▁exchange	-6094
▁believed	-6095
dig	-6096
▁remote	-6097
▁mac	-6098
▁insp	-6099
▁vehicle	-6100
▁Sup	-6101
▁sexual	-6102
sql	-6103
ENSE	-6104
▁court	-6105
▁stim	-6106
Sum	-6107
▁suggests	-6108
▁library	-6109
▁Thom	-6110
▁seven	-6111
▁-1	-6112
▁Students	-6113
definitions	-6114
▁Green	-6115
▁learned	-6116
▁Spanish	-6117
txt	-6118
inated	-6119
▁plastic	-6120
▁automatically	-6121
IVE	-6122
rew	-6123
▁heavy	-6124
▁pagination	-6125
▁Council	-6126
▁"%	-6127
▁consumption	-6128
▁gender	-6129
▁degrees	-6130
▁journal	-6131
▁disorder	-6132
▁regarding	-6133
▁technologies	-6134
▁Egypt	-6135
▁batter	-6136
▁Development	-6137
▁nor	-6138
▁Tur	-6139
▁absor	-6140
▁stack	-6141
▁termin	-6142
▁easier	-6143
▁aim	-6144
schema	-6145
▁integers	-6146
▁Dep	-6147
▁die	-6148
▁phase	-6149
▁slight	-6150
▁occurred	-6151
bas	-6152
enth	-6153
▁speech	-6154
Metadata	-6155
za	-6156
aste	-6157
▁assessment	-6158
car	-6159
▁agent	-6160
SO	-6161
Occur	-6162
▁iron	-6163
▁Start	-6164
▁Return	-6165
onenote	-6166
▁breast	-6167
▁density	-6168
▁fix	-6169
.0.0	-6170
sample	-6171
▁vision	-6172
▁Current	-6173
▁muscle	-6174
▁strategies	-6175
park	-6176
anned	-6177
Collection	-6178
▁Out	-6179
▁500	-6180
ras	-6181
Be	-6182
ups	-6183
New	-6184
proto	-6185
License	-6186
iber	-6187
ARRANTIES	-6188
▁released	-6189
tree	-6190
▁GoogleCloud	-6191
-6	-6192
Attribute	-6193
▁"0	-6194
▁glass	-6195
▁Mac	-6196
xygen	-6197
▁lif	-6198
▁assign	-6199
▁limitations	-6200
afv	-6201
▁Ang	-6202
▁vary	-6203
></	-6204
rations	-6205
authorized	-6206
▁documents	-6207
▁ded	-6208
calculate	-6209
ipl	-6210
▁exhib	-6211
▁letters	-6212
▁caref	-6213
▁Both	-6214
▁fixed	-6215
▁chance	-6216
EC	-6217
▁pull	-6218
cluded	-6219
▁ignore	-6220
▁representing	-6221
crete	-6222
crimin	-6223
▁citizens	-6224
▁radio	-6225
▁categories	-6226
▁tab	-6227
▁metal	-6228
ICE	-6229
xgafv	-6230
▁req	-6231
allel	-6232
▁Error	-6233
▁planning	-6234
▁presented	-6235
▁emphas	-6236
directory	-6237
tee	-6238
style	-6239
Session	-6240
features	-6241
▁Mem	-6242
▁changing	-6243
step	-6244
IST	-6245
lam	-6246
▁domin	-6247
FO	-6248
▁district	-6249
▁##	-6250
▁magn	-6251
▁optim	-6252
▁screen	-6253
▁flood	-6254
▁timeout	-6255
▁isol	-6256
▁strings	-6257
▁Therefore	-6258
dt	-6259
city	-6260
▁neut	-6261
ara	-6262
▁Further	-6263
▁univers	-6264
full	-6265
tics	-6266
▁28	-6267
▁wire	-6268
▁compre	-6269
▁decades	-6270
ARE	-6271
▁Mich	-6272
Min	-6273
▁20,	-6274
▁huge	-6275
▁frequently	-6276
nic	-6277
bytes	-6278
▁Lord	-6279
▁mathe	-6280
application	-6281
▁Bas	-6282
▁bur	-6283
ophy	-6284
▁phr	-6285
ulum	-6286
ests	-6287
▁characteristics	-6288
▁10.	-6289
ancing	-6290
numbers	-6291
▁Congress	-6292
free	-6293
letter	-6294
details	-6295
▁lambda	-6296
▁covered	-6297
ba	-6298
▁80	-6299
▁err	-6300
channel	-6301
▁6.	-6302
tenance	-6303
▁insert	-6304
▁accel	-6305
summary	-6306
▁explore	-6307
▁comments	-6308
▁Phys	-6309
▁reverse	-6310
▁decisions	-6311
▁"*	-6312
▁whom	-6313
▁Apache	-6314
▁dataset	-6315
▁"[	-6316
Custom	-6317
▁leaders	-6318
Occurrences	-6319
stats	-6320
▁becoming	-6321
▁clinical	-6322
umps	-6323
▁Hel	-6324
single	-6325
▁coordinates	-6326
▁populations	-6327
plates	-6328
Handler	-6329
3:	-6330
anaged	-6331
▁excess	-6332
▁implementation	-6333
NOT	-6334
plot	-6335
▁arr	-6336
▁turned	-6337
58	-6338
Call	-6339
▁Log	-6340
▁manufacture	-6341
Internal	-6342
▁approximately	-6343
▁reality	-6344
ause	-6345
▁calendar	-6346
▁bed	-6347
▁liqu	-6348
▁conducted	-6349
ida	-6350
lers	-6351
▁Off	-6352
const	-6353
ani	-6354
▁Run	-6355
▁distinct	-6356
Many	-6357
hook	-6358
▁buy	-6359
mean	-6360
▁obtained	-6361
PER	-6362
Describe	-6363
show	-6364
iform	-6365
▁Museum	-6366
aint	-6367
▁Model	-6368
areness	-6369
▁depending	-6370
des	-6371
▁Pos	-6372
power	-6373
▁clearly	-6374
aker	-6375
▁promote	-6376
▁intended	-6377
▁relationships	-6378
IR	-6379
1":	-6380
▁Fig	-6381
*-	-6382
▁male	-6383
security	-6384
Reference	-6385
▁unknown	-6386
▁James	-6387
▁owner	-6388
yd	-6389
iler	-6390
cious	-6391
▁interested	-6392
gt	-6393
posite	-6394
itness	-6395
97	-6396
▁happens	-6397
▁90	-6398
▁significantly	-6399
Point	-6400
DC	-6401
ums	-6402
Line	-6403
▁anyone	-6404
iling	-6405
▁opin	-6406
estion	-6407
▁faith	-6408
▁SO	-6409
▁fert	-6410
▁Government	-6411
▁Mor	-6412
Dat	-6413
ometry	-6414
▁attract	-6415
ano	-6416
▁Second	-6417
▁virtual	-6418
▁26	-6419
SH	-6420
▁fill	-6421
ACK	-6422
sole	-6423
▁disorders	-6424
TC	-6425
▁versions	-6426
comes	-6427
total	-6428
▁cmd	-6429
▁Book	-6430
▁Fran	-6431
▁split	-6432
ologist	-6433
SA	-6434
▁2011	-6435
Options	-6436
reference	-6437
▁2013	-6438
▁explo	-6439
desc	-6440
▁hun	-6441
phone	-6442
▁sand	-6443
▁breath	-6444
▁Fol	-6445
[-1	-6446
▁prices	-6447
▁ip	-6448
vate	-6449
▁13,	-6450
▁industrial	-6451
but	-6452
▁7,	-6453
FIED	-6454
Returns	-6455
▁successfully	-6456
▁temperatures	-6457
Denied	-6458
utf	-6459
▁Its	-6460
nes	-6461
apers	-6462
▁electricity	-6463
▁Stand	-6464
Su	-6465
UD	-6466
▁define	-6467
▁player	-6468
▁aspects	-6469
▁vitamin	-6470
▁Je	-6471
rout	-6472
▁ARN	-6473
Order	-6474
▁flight	-6475
ognitive	-6476
▁contrast	-6477
ampl	-6478
▁End	-6479
▁matches	-6480
▁1000	-6481
rowser	-6482
unds	-6483
▁Bad	-6484
▁film	-6485
▁cov	-6486
▁widely	-6487
▁legisl	-6488
▁invalid	-6489
▁garden	-6490
istribution	-6491
abc	-6492
oto	-6493
oving	-6494
▁paths	-6495
▁organic	-6496
▁Ben	-6497
fg	-6498
▁194	-6499
cons	-6500
ios	-6501
▁Hol	-6502
▁introduced	-6503
▁served	-6504
fs	-6505
ria	-6506
▁College	-6507
quotaUser	-6508
▁Mal	-6509
▁vulner	-6510
oma	-6511
▁aware	-6512
▁copyright	-6513
▁kid	-6514
▁freedom	-6515
amps	-6516
▁sou	-6517
coming	-6518
▁'483':	-6519
udget	-6520
▁pieces	-6521
osen	-6522
▁Mr	-6523
mand	-6524
▁Mary	-6525
▁causing	-6526
▁visible	-6527
▁Republic	-6528
derr	-6529
calendars	-6530
stop	-6531
well	-6532
▁referred	-6533
▁rock	-6534
pan	-6535
▁Rec	-6536
isted	-6537
▁Dem	-6538
▁mask	-6539
▁depression	-6540
fc	-6541
Map	-6542
Types	-6543
clusion	-6544
▁absolute	-6545
uce	-6546
▁Like	-6547
driver	-6548
MP	-6549
▁NAS	-6550
▁buildings	-6551
▁eq	-6552
▁Sum	-6553
standing	-6554
▁nuclear	-6555
▁encoding	-6556
▁NO	-6557
lang	-6558
▁News	-6559
▁scen	-6560
lambda	-6561
ilit	-6562
▁soci	-6563
▁urban	-6564
reshold	-6565
lay	-6566
▁Doc	-6567
▁George	-6568
Connection	-6569
▁mentioned	-6570
Web	-6571
▁1.0	-6572
▁Foundation	-6573
▁fle	-6574
alpha	-6575
isions	-6576
▁depth	-6577
▁Paul	-6578
▁advanced	-6579
rick	-6580
▁Import	-6581
ows	-6582
rack	-6583
▁discussion	-6584
!!	-6585
bb	-6586
ernel	-6587
Context	-6588
specific	-6589
ago	-6590
▁evalu	-6591
ValueExtended	-6592
prettyPrint	-6593
left	-6594
years	-6595
▁anxiety	-6596
▁Greek	-6597
▁oxygen	-6598
heast	-6599
▁subsequent	-6600
_1	-6601
Level	-6602
▁killed	-6603
GE	-6604
▁lived	-6605
IE	-6606
rane	-6607
ture	-6608
▁homes	-6609
timeout	-6610
▁numerous	-6611
mm	-6612
▁camer	-6613
▁motor	-6614
▁wanted	-6615
▁"@	-6616
▁frag	-6617
▁About	-6618
icial	-6619
rates	-6620
band	-6621
▁-*-	-6622
▁prepar	-6623
▁station	-6624
SL	-6625
▁ocean	-6626
▁attached	-6627
▁combined	-6628
ROR	-6629
encode	-6630
ander	-6631
irgin	-6632
▁reached	-6633
54	-6634
:</	-6635
math	-6636
▁grass	-6637
AY	-6638
][	-6639
▁Examples	-6640
iveness	-6641
▁circum	-6642
▁technique	-6643
ka	-6644
Lab	-6645
▁>=	-6646
othe	-6647
UNS	-6648
ffix	-6649
hesis	-6650
omb	-6651
othing	-6652
Document	-6653
▁recorded	-6654
▁respond	-6655
pu	-6656
▁ple	-6657
ocity	-6658
▁Build	-6659
▁logger	-6660
▁Management	-6661
▁unc	-6662
▁Source	-6663
orical	-6664
▁lists	-6665
▁kept	-6666
/_.	-6667
dec	-6668
wik	-6669
Limit	-6670
▁bone	-6671
▁grade	-6672
▁chronic	-6673
ij	-6674
▁literature	-6675
cat	-6676
▁solutions	-6677
▁Go	-6678
▁Ver	-6679
▁medicine	-6680
empty	-6681
ipping	-6682
▁audio	-6683
▁statistics	-6684
▁src	-6685
▁kill	-6686
▁tum	-6687
views	-6688
▁views	-6689
▁edge	-6690
▁hash	-6691
▁violence	-6692
exists	-6693
▁schedul	-6694
SC	-6695
▁IDs	-6696
▁Que	-6697
▁Args	-6698
unately	-6699
▁authors	-6700
ws	-6701
INT	-6702
▁wonder	-6703
▁Publ	-6704
▁Describe	-6705
hetic	-6706
▁shell	-6707
licenses	-6708
Stream	-6709
Profile	-6710
plicate	-6711
▁novel	-6712
ora	-6713
ftware	-6714
Tensor	-6715
▁follows	-6716
▁2017	-6717
▁famous	-6718
▁closed	-6719
▁unless	-6720
aper	-6721
▁instrument	-6722
Me	-6723
grade	-6724
riage	-6725
lat	-6726
▁serial	-6727
▁operating	-6728
▁8,	-6729
▁fine	-6730
▁depends	-6731
Gu	-6732
\",	-6733
▁vess	-6734
▁Court	-6735
"))	-6736
iverse	-6737
ME	-6738
▁Life	-6739
▁hear	-6740
▁spot	-6741
▁chain	-6742
▁looks	-6743
▁noted	-6744
LL	-6745
▁Mount	-6746
▁sheet	-6747
▁14,	-6748
which	-6749
▁doub	-6750
▁principles	-6751
istent	-6752
▁exposed	-6753
arrow	-6754
▁accepted	-6755
anner	-6756
video	-6757
▁Budd	-6758
rapper	-6759
▁risks	-6760
03	-6761
2":	-6762
thread	-6763
▁Mer	-6764
odata	-6765
▁surgery	-6766
▁',	-6767
▁dangerous	-6768
89	-6769
▁salt	-6770
Method	-6771
neg	-6772
SD	-6773
▁issu	-6774
PECIFIED	-6775
going	-6776
aud	-6777
ttp	-6778
arant	-6779
▁(2	-6780
5678	-6781
Prot	-6782
▁pairs	-6783
▁voice	-6784
▁Common	-6785
▁involves	-6786
ields	-6787
▁Cath	-6788
▁Allow	-6789
▁criteria	-6790
uploadType	-6791
▁retrieved	-6792
Del	-6793
▁'-	-6794
▁click	-6795
▁gro	-6796
▁seek	-6797
▁Config	-6798
▁suggested	-6799
)):	-6800
-11	-6801
▁Rich	-6802
▁Gl	-6803
▁eggs	-6804
▁operator	-6805
▁reducing	-6806
inn	-6807
▁aid	-6808
ERS	-6809
▁35	-6810
▁Old	-6811
flict	-6812
▁advantage	-6813
Build	-6814
cycle	-6815
flags	-6816
riculum	-6817
123	-6818
▁island	-6819
▁god	-6820
▁hit	-6821
▁kil	-6822
▁confidence	-6823
▁Text	-6824
▁helped	-6825
uls	-6826
▁begins	-6827
▁effectively	-6828
serial	-6829
Details	-6830
▁Scient	-6831
▁representation	-6832
BU	-6833
WN	-6834
▁2:	-6835
Cluster	-6836
termStore	-6837
▁Ev	-6838
▁jour	-6839
ultiple	-6840
▁environ	-6841
iced	-6842
▁Author	-6843
▁solid	-6844
At	-6845
'].	-6846
lim	-6847
Network	-6848
ologists	-6849
▁getattr	-6850
.')	-6851
rics	-6852
fully	-6853
▁creates	-6854
▁selection	-6855
={	-6856
▁22	-6857
Location	-6858
▁percentage	-6859
verty	-6860
acific	-6861
▁involve	-6862
▁conservation	-6863
▁satis	-6864
▁band	-6865
▁targets	-6866
MENT	-6867
▁Island	-6868
iled	-6869
▁Learning	-6870
Rep	-6871
elled	-6872
▁Order	-6873
gent	-6874
▁mostly	-6875
▁topics	-6876
[0])	-6877
draw	-6878
▁2009	-6879
▁aren	-6880
▁segment	-6881
▁expressions	-6882
%22	-6883
INE	-6884
Element	-6885
▁collected	-6886
ya	-6887
under	-6888
▁addresses	-6889
▁authentication	-6890
chain	-6891
▁2016	-6892
▁NASA	-6893
']['	-6894
ceived	-6895
ifiers	-6896
>.'	-6897
▁Treat	-6898
▁contents	-6899
▁Tex	-6900
▁implied	-6901
▁allowing	-6902
▁diss	-6903
▁temp	-6904
▁battle	-6905
','	-6906
pot	-6907
▁college	-6908
▁mapping	-6909
Definition	-6910
Py	-6911
▁cards	-6912
Required	-6913
▁proposed	-6914
▁infections	-6915
▁2018	-6916
▁genes	-6917
▁branch	-6918
▁radiation	-6919
▁connections	-6920
72	-6921
▁23	-6922
▁adding	-6923
▁feeling	-6924
▁prepared	-6925
Te	-6926
"):	-6927
ivation	-6928
▁WARRANTIES	-6929
ario	-6930
cers	-6931
▁Asia	-6932
▁leads	-6933
inations	-6934
ressed	-6935
▁touch	-6936
plemented	-6937
structions	-6938
onic	-6939
roke	-6940
netic	-6941
Boolean	-6942
vm	-6943
syn	-6944
▁Vis	-6945
▁floor	-6946
▁heard	-6947
▁elev	-6948
startswith	-6949
tools	-6950
▁compat	-6951
▁switch	-6952
▁administr	-6953
spe	-6954
▁comfort	-6955
di	-6956
▁8.	-6957
icip	-6958
▁rul	-6959
▁starts	-6960
▁territ	-6961
▁flex	-6962
▁trib	-6963
matrix	-6964
ationException	-6965
icians	-6966
▁Custom	-6967
▁Control	-6968
▁institutions	-6969
exc	-6970
mut	-6971
▁Fre	-6972
▁dogs	-6973
▁pretty	-6974
74	-6975
▁inh	-6976
astern	-6977
▁execution	-6978
▁Jews	-6979
storage	-6980
▁codes	-6981
▁tooth	-6982
▁reject	-6983
imer	-6984
▁meant	-6985
▁Robert	-6986
Timestamp	-6987
▁Medical	-6988
URE	-6989
apache	-6990
▁SM	-6991
labels	-6992
system	-6993
▁inputs	-6994
den	-6995
ume	-6996
encing	-6997
IGHT	-6998
lext	-6999
▁Expand	-7000
▁discover	-7001
▁discovery	-7002
Review	-7003
▁Account	-7004
▁northern	-7005
aml	-7006
▁White	-7007
▁initi	-7008
control	-7009
itlement	-7010
▁Response	-7011
▁religion	-7012
▁sufficient	-7013
▁Ca	-7014
FAULT	-7015
▁procedure	-7016
rev	-7017
▁Dat	-7018
▁func	-7019
▁southern	-7020
▁Leg	-7021
▁expressed	-7022
Process	-7023
▁Network	-7024
.")	-7025
tage	-7026
▁Kore	-7027
▁drop	-7028
▁mathemat	-7029
Finds	-7030
itors	-7031
▁division	-7032
▁incorpor	-7033
STR	-7034
umin	-7035
Ip	-7036
▁Hen	-7037
PAT	-7038
div	-7039
▁Sal	-7040
▁Image	-7041
▁blocks	-7042
▁measured	-7043
▁trial	-7044
▁faster	-7045
glext	-7046
▁Civil	-7047
▁monitoring	-7048
DIT	-7049
▁excell	-7050
▁remaining	-7051
▁BAS	-7052
▁schedule	-7053
▁comprehens	-7054
fake	-7055
▁youth	-7056
▁injury	-7057
▁Dev	-7058
login	-7059
Function	-7060
3-	-7061
▁pun	-7062
separ	-7063
▁governing	-7064
=(	-7065
compile	-7066
▁medium	-7067
▁disk	-7068
ZE	-7069
Vari	-7070
▁coin	-7071
include	-7072
KEY	-7073
Tube	-7074
]"},	-7075
▁suc	-7076
cursor	-7077
▁saying	-7078
▁obvious	-7079
leg	-7080
HOUT	-7081
augh	-7082
▁explicit	-7083
ocab	-7084
▁mobile	-7085
UNSPECIFIED	-7086
.*	-7087
▁Instead	-7088
▁periods	-7089
▁Specifies	-7090
▁concepts	-7091
▁choices	-7092
nums	-7093
ptor	-7094
▁Call	-7095
▁spent	-7096
`:	-7097
▁Mexico	-7098
▁experienced	-7099
assertEquals	-7100
▁FOR	-7101
▁meat	-7102
▁transaction	-7103
▁describes	-7104
▁Back	-7105
▁mist	-7106
predict	-7107
▁Central	-7108
06	-7109
oves	-7110
▁yellow	-7111
2',	-7112
▁32	-7113
▁motion	-7114
Exceeded	-7115
js	-7116
▁reserved	-7117
marily	-7118
▁weights	-7119
▁DO	-7120
eties	-7121
▁2008	-7122
▁Acad	-7123
▁manner	-7124
▁authority	-7125
olicies	-7126
▁amounts	-7127
▁appoint	-7128
▁""}}}]	-7129
ouble	-7130
▁launch	-7131
kw	-7132
▁Connect	-7133
▁consult	-7134
▁experts	-7135
ORD	-7136
▁flat	-7137
Connect	-7138
▁Global	-7139
incipal	-7140
▁7.	-7141
mpty	-7142
ARGET	-7143
▁Server	-7144
▁conversation	-7145
dden	-7146
▁Base	-7147
▁colors	-7148
▁pars	-7149
▁smart	-7150
/20	-7151
▁<=	-7152
▁Must	-7153
▁fort	-7154
▁wealth	-7155
84	-7156
▁roots	-7157
▁seeds	-7158
▁farmers	-7159
berg	-7160
▁migr	-7161
Pos	-7162
gments	-7163
▁Thomas	-7164
▁decided	-7165
▁morning	-7166
▁academic	-7167
Api	-7168
team	-7169
▁renew	-7170
constant	-7171
▁creative	-7172
▁recognized	-7173
PY	-7174
▁70	-7175
urt	-7176
▁Table	-7177
▁%(	-7178
exit	-7179
▁bul	-7180
ga	-7181
usters	-7182
▁Report	-7183
media	-7184
94	-7185
▁consists	-7186
4':	-7187
▁Fort	-7188
▁extent	-7189
▁refers	-7190
▁encourage	-7191
▁hospital	-7192
▁ran	-7193
▁zip	-7194
▁delivery	-7195
Mem	-7196
▁blog	-7197
install	-7198
▁concerns	-7199
▁derived	-7200
▁detected	-7201
");	-7202
quare	-7203
wood	-7204
annot	-7205
▁Arab	-7206
▁east	-7207
▁leader	-7208
▁render	-7209
▁hasattr	-7210
▁Ext	-7211
▁HIV	-7212
unique	-7213
▁reaction	-7214
UE	-7215
▁Hy	-7216
iders	-7217
space	-7218
▁explan	-7219
▁videos	-7220
]*	-7221
▁protected	-7222
zed	-7223
straints	-7224
fered	-7225
▁2000	-7226
▁Space	-7227
rottling	-7228
▁[1	-7229
▁sides	-7230
environ	-7231
DeniedException	-7232
agon	-7233
▁phenomen	-7234
▁Sen	-7235
idx	-7236
ishes	-7237
▁Mart	-7238
").	-7239
lig	-7240
▁advert	-7241
eno	-7242
ithub	-7243
gov	-7244
▁(18	-7245
▁mainly	-7246
render	-7247
▁emotional	-7248
gon	-7249
▁alt	-7250
▁cry	-7251
handle	-7252
▁trace	-7253
oreignKey	-7254
▁improved	-7255
▁atmosphere	-7256
Port	-7257
uing	-7258
argument	-7259
rawn	-7260
▁Tem	-7261
after	-7262
burg	-7263
▁Lou	-7264
▁TH	-7265
▁formation	-7266
OF	-7267
ova	-7268
▁Mil	-7269
claim	-7270
terms	-7271
▁ring	-7272
handler	-7273
▁produces	-7274
cluding	-7275
▁continues	-7276
hot	-7277
eless	-7278
▁helping	-7279
▁push	-7280
clean	-7281
▁plot	-7282
▁cursor	-7283
▁setup	-7284
▁forced	-7285
apon	-7286
reet	-7287
▁Sun	-7288
extra	-7289
otion	-7290
ector	-7291
raises	-7292
▁persons	-7293
▁networks	-7294
▁Vol	-7295
paths	-7296
▁tested	-7297
▁km	-7298
ician	-7299
▁Field	-7300
▁candid	-7301
▁'1	-7302
▁storm	-7303
▁hearing	-7304
▁Jer	-7305
▁sing	-7306
▁Status	-7307
▁settle	-7308
3_	-7309
▁ops	-7310
▁brief	-7311
▁calling	-7312
▁underst	-7313
▁explains	-7314
▁substant	-7315
▁Plan	-7316
▁firm	-7317
▁horm	-7318
unte	-7319
▁continuous	-7320
primary	-7321
▁playing	-7322
ouns	-7323
▁perman	-7324
roph	-7325
▁Step	-7326
▁awareness	-7327
buf	-7328
bench	-7329
▁existence	-7330
BC	-7331
▁2015	-7332
▁coal	-7333
▁Energy	-7334
▁WITHOUT	-7335
'},	-7336
▁kinds	-7337
▁onto	-7338
▁toxic	-7339
▁played	-7340
%(	-7341
han	-7342
▁beautiful	-7343
▁reduction	-7344
▁Bro	-7345
▁fro	-7346
ipedia	-7347
▁Year	-7348
▁pollution	-7349
amental	-7350
▁liquid	-7351
Oper	-7352
▁fib	-7353
▁Such	-7354
▁ideal	-7355
company	-7356
▁Company	-7357
▁payload	-7358
inner	-7359
PR	-7360
▁neuro	-7361
▁Well	-7362
▁spend	-7363
Cur	-7364
fall	-7365
safe	-7366
▁Virgin	-7367
▁greatest	-7368
▁Tool	-7369
▁artist	-7370
rian	-7371
▁announ	-7372
extension	-7373
▁Long	-7374
Modified	-7375
register	-7376
▁KIND	-7377
▁waters	-7378
▁specifically	-7379
▁Mass	-7380
▁Before	-7381
rd	-7382
setup	-7383
▁doll	-7384
▁ingred	-7385
▁engineering	-7386
▁sustainable	-7387
Ind	-7388
▁vital	-7389
ANCE	-7390
ndrome	-7391
aturally	-7392
▁fetched	-7393
▁extended	-7394
▁straight	-7395
▁installed	-7396
tf	-7397
▁Women	-7398
▁columns	-7399
▁mel	-7400
▁mort	-7401
▁remained	-7402
cd	-7403
stat	-7404
▁facts	-7405
▁partial	-7406
▁Language	-7407
veloper	-7408
ubs	-7409
rich	-7410
▁advance	-7411
---------	-7412
▁arm	-7413
▁meters	-7414
▁pup	-7415
▁essay	-7416
card	-7417
▁minute	-7418
▁(1,	-7419
▁inner	-7420
▁technical	-7421
BO	-7422
▁-------	-7423
▁Windows	-7424
ertificate	-7425
Enc	-7426
▁16,	-7427
▁Inv	-7428
▁wet	-7429
▁Where	-7430
▁showing	-7431
▁vegetables	-7432
ads	-7433
▁flags	-7434
}:	-7435
]),	-7436
▁Islam	-7437
▁asset	-7438
▁secure	-7439
▁27	-7440
Next	-7441
fast	-7442
▁36	-7443
▁Through	-7444
▁react	-7445
sq	-7446
ught	-7447
▁lung	-7448
▁Texas	-7449
Fail	-7450
Flow	-7451
▁Mo	-7452
insert	-7453
▁offered	-7454
]))	-7455
Out	-7456
Wor	-7457
/__	-7458
▁rid	-7459
CONF	-7460
▁sentence	-7461
=1,	-7462
▁situations	-7463
ILITY	-7464
uable	-7465
▁primarily	-7466
▁Pass	-7467
▁typical	-7468
▁2014	-7469
▁admin	-7470
▁latitude	-7471
▁Power	-7472
▁inches	-7473
▁lesson	-7474
▁affects	-7475
Pay	-7476
bidden	-7477
▁prescri	-7478
▁accurate	-7479
▁efficiency	-7480
pb	-7481
display	-7482
53	-7483
▁inher	-7484
then	-7485
▁'__	-7486
▁sett	-7487
▁certainly	-7488
uality	-7489
stronom	-7490
▁Medicine	-7491
▁diagnosis	-7492
ATIN	-7493
aracter	-7494
score	-7495
▁abuse	-7496
distance	-7497
▁snow	-7498
▁electrical	-7499
ASS	-7500
▁Technology	-7501
orest	-7502
sentry	-7503
▁centuries	-7504
▁cos	-7505
stdout	-7506
▁drives	-7507
▁brother	-7508
▁decimal	-7509
▁sensitive	-7510
▁Commission	-7511
▁Dise	-7512
▁focused	-7513
▁professor	-7514
▁Parameters	-7515
uble	-7516
rigin	-7517
▁Pacific	-7518
▁Ir	-7519
▁Lake	-7520
FORM	-7521
▁Net	-7522
▁attr	-7523
olumns	-7524
strong	-7525
▁crypt	-7526
▁impos	-7527
▁potentially	-7528
▁IM	-7529
▁Library	-7530
▁helpful	-7531
▁Security	-7532
▁regional	-7533
▁perspective	-7534
ini	-7535
▁Main	-7536
Entity	-7537
▁Atl	-7538
({	-7539
race	-7540
▁Sign	-7541
▁paid	-7542
compat	-7543
▁matching	-7544
▁HT	-7545
airs	-7546
▁nutrients	-7547
entitlement	-7548
▁practical	-7549
▁ped	-7550
▁Dist	-7551
▁assist	-7552
▁driver	-7553
rot	-7554
▁ox	-7555
▁ecos	-7556
▁Latin	-7557
▁vaccine	-7558
▁contribute	-7559
▁static	-7560
▁entries	-7561
▁'--	-7562
▁looked	-7563
ael	-7564
ycl	-7565
zones	-7566
▁certificate	-7567
).__	-7568
▁bool	-7569
▁drinking	-7570
▁chemicals	-7571
▁300	-7572
▁fluid	-7573
▁manifest	-7574
sol	-7575
▁skip	-7576
▁shift	-7577
▁YouTube	-7578
▁divided	-7579
=0	-7580
FL	-7581
▁pray	-7582
▁/#	-7583
Work	-7584
▁File	-7585
▁shar	-7586
▁president	-7587
ummy	-7588
▁girls	-7589
▁relation	-7590
▁subjects	-7591
▁nit	-7592
▁sin	-7593
health	-7594
Identity	-7595
SER	-7596
▁3)	-7597
▁Bre	-7598
▁keeping	-7599
GO	-7600
▁instruction	-7601
IA	-7602
rat	-7603
learn	-7604
▁Expl	-7605
Section	-7606
▁deliver	-7607
▁consumer	-7608
osa	-7609
FN	-7610
Tests	-7611
▁none	-7612
▁Bay	-7613
▁somew	-7614
Optional	-7615
bert	-7616
▁nerv	-7617
▁calculate	-7618
▁processed	-7619
dest	-7620
▁reco	-7621
execute	-7622
▁happened	-7623
Frame	-7624
▁portion	-7625
▁consequences	-7626
▁responsibility	-7627
Back	-7628
▁Smith	-7629
▁sounds	-7630
▁taught	-7631
▁nations	-7632
▁Home	-7633
▁runs	-7634
ansion	-7635
▁Psych	-7636
▁Product	-7637
redentials	-7638
opic	-7639
ua	-7640
atial	-7641
▁extreme	-7642
▁purchase	-7643
ager	-7644
▁funding	-7645
▁partner	-7646
▁vel	-7647
▁Point	-7648
▁limits	-7649
▁signals	-7650
norm	-7651
tags	-7652
▁Russian	-7653
▁excellent	-7654
▁longitude	-7655
▁controlled	-7656
(['	-7657
▁sed	-7658
YYYY	-7659
yles	-7660
▁Bible	-7661
▁tables	-7662
generate	-7663
▁internet	-7664
▁bird	-7665
▁despite	-7666
▁particles	-7667
Summary	-7668
▁dimension	-7669
▁emergency	-7670
▁poverty	-7671
▁"*"	-7672
▁thoughts	-7673
▁```	-7674
▁maintenance	-7675
home	-7676
igenous	-7677
▁Yet	-7678
▁vast	-7679
pattern	-7680
59	-7681
policy	-7682
▁bright	-7683
hav	-7684
▁lose	-7685
ValueError	-7686
Fl	-7687
▁employees	-7688
support	-7689
▁repeated	-7690
omy	-7691
▁vent	-7692
▁comparison	-7693
▁facilities	-7694
'})	-7695
stone	-7696
▁muscles	-7697
▁employment	-7698
cycl	-7699
ensus	-7700
▁moist	-7701
▁Article	-7702
▁largely	-7703
Rest	-7704
▁Who	-7705
▁foss	-7706
▁debug	-7707
▁slightly	-7708
inate	-7709
iral	-7710
rolog	-7711
▁disable	-7712
▁haz	-7713
▁treatments	-7714
Auto	-7715
▁Those	-7716
▁broken	-7717
▁probability	-7718
HER	-7719
▁qui	-7720
guide	-7721
▁infrast	-7722
Description	-7723
older	-7724
atever	-7725
holder	-7726
▁apparent	-7727
▁inject	-7728
▁Federal	-7729
▁metrics	-7730
RequestException	-7731
IF	-7732
▁bio	-7733
unicode	-7734
▁police	-7735
Identifier	-7736
zA	-7737
▁proport	-7738
anda	-7739
▁warnings	-7740
ServerException	-7741
▁Ob	-7742
▁Writ	-7743
structor	-7744
▁recovery	-7745
▁secondary	-7746
08	-7747
▁Ent	-7748
▁spaces	-7749
attribute	-7750
▁ren	-7751
▁Good	-7752
▁chol	-7753
▁rough	-7754
▁tried	-7755
▁Ber	-7756
repr	-7757
▁Keep	-7758
▁stars	-7759
LICENSE	-7760
Exec	-7761
pers	-7762
▁felt	-7763
▁manager	-7764
resources	-7765
▁'_	-7766
this	-7767
▁explained	-7768
publ	-7769
▁allerg	-7770
iding	-7771
▁prepare	-7772
▁virt	-7773
bc	-7774
▁cris	-7775
▁tit	-7776
▁writer	-7777
▁Software	-7778
5%	-7779
▁OK	-7780
Domain	-7781
▁Britain	-7782
▁replaced	-7783
▁equivalent	-7784
ja	-7785
-2.0	-7786
Anal	-7787
lose	-7788
Control	-7789
▁Econom	-7790
ctx	-7791
inv	-7792
▁186	-7793
▁drink	-7794
unittest	-7795
▁guarant	-7796
Note	-7797
area	-7798
chron	-7799
▁10000	-7800
Endpoint	-7801
▁unicode	-7802
zen	-7803
kers	-7804
▁Ann	-7805
▁budget	-7806
▁coding	-7807
▁familiar	-7808
▁interests	-7809
▁consistent	-7810
▁decor	-7811
▁stone	-7812
▁prompt	-7813
validate	-7814
▁converted	-7815
▁officials	-7816
▁surrounding	-7817
ACE	-7818
▁delay	-7819
▁evaluation	-7820
rowth	-7821
tores	-7822
▁couple	-7823
▁reader	-7824
▁concerned	-7825
▁contained	-7826
▁"2	-7827
▁goods	-7828
▁Object	-7829
▁sector	-7830
▁hundreds	-7831
▁tradition	-7832
isc	-7833
quate	-7834
▁2007	-7835
▁mere	-7836
▁oral	-7837
▁plate	-7838
▁rail	-7839
▁minor	-7840
▁thick	-7841
duration	-7842
▁normally	-7843
ONE	-7844
▁IAM	-7845
▁claims	-7846
57	-7847
INTER	-7848
▁cere	-7849
▁governments	-7850
▁[0,	-7851
activity	-7852
▁director	-7853
▁biological	-7854
▁collections	-7855
▁assets	-7856
▁neighb	-7857
▁Rad	-7858
▁Bet	-7859
▁CONDIT	-7860
▁expensive	-7861
▁Up	-7862
▁Army	-7863
▁cognitive	-7864
agent	-7865
▁Color	-7866
▁Event	-7867
▁Method	-7868
▁career	-7869
▁Po	-7870
▁Init	-7871
▁clim	-7872
▁advice	-7873
Ed	-7874
rogen	-7875
▁ages	-7876
urations	-7877
▁Charles	-7878
wd	-7879
▁agricultural	-7880
▁[[	-7881
▁Sam	-7882
▁sen	-7883
▁grid	-7884
roller	-7885
▁brand	-7886
gn	-7887
▁Nav	-7888
posal	-7889
chem	-7890
etry	-7891
▁blank	-7892
▁crops	-7893
▁fake	-7894
▁knew	-7895
images	-7896
▁therm	-7897
▁suitable	-7898
▁resolution	-7899
▁fundamental	-7900
FR	-7901
istan	-7902
▁algorithm	-7903
uber	-7904
▁pil	-7905
▁roles	-7906
aughter	-7907
▁Middle	-7908
▁HTML	-7909
▁pros	-7910
extend	-7911
▁scores	-7912
ForeignKey	-7913
▁producing	-7914
Off	-7915
Val	-7916
▁marked	-7917
▁convent	-7918
"\	-7919
02	-7920
▁cm	-7921
Admin	-7922
▁Conf	-7923
▁Date	-7924
▁'484':	-7925
▁Follow	-7926
▁originally	-7927
▁concentration	-7928
BN	-7929
▁Sol	-7930
large	-7931
▁rank	-7932
▁Accept	-7933
abil	-7934
ammation	-7935
({'	-7936
▁holid	-7937
▁trigger	-7938
▁curriculum	-7939
temp	-7940
▁accident	-7941
(2	-7942
Wh	-7943
▁chief	-7944
▁rapidly	-7945
▁procedures	-7946
▁attacks	-7947
ato	-7948
inf	-7949
▁Sov	-7950
▁Despite	-7951
▁discrimin	-7952
hs	-7953
Format	-7954
▁chosen	-7955
(\	-7956
▁movie	-7957
▁estimate	-7958
▁CONDITIONS	-7959
cm	-7960
Art	-7961
esh	-7962
wer	-7963
▁san	-7964
▁Flor	-7965
▁Review	-7966
▁namespace	-7967
▁principal	-7968
cut	-7969
▁BASIS	-7970
▁approaches	-7971
lass	-7972
▁Mag	-7973
▁Nor	-7974
▁ancest	-7975
▁association	-7976
▁increasingly	-7977
uint	-7978
▁boost	-7979
OK	-7980
ania	-7981
xxxx	-7982
▁Sea	-7983
▁tail	-7984
▁wife	-7985
********	-7986
▁toler	-7987
▁exceed	-7988
0,0,0,0,	-7989
eli	-7990
▁9,	-7991
▁checks	-7992
▁integration	-7993
▁Environmental	-7994
PORT	-7995
atters	-7996
interval	-7997
llib	-7998
changed	-7999
aming	-8000
atted	-8001
▁Alex	-8002
▁Free	-8003
:%	-8004
Tags	-8005
amil	-8006
creen	-8007
▁mail	-8008
▁ratio	-8009
ometimes	-8010
▁western	-8011
▁underlying	-8012
09	-8013
uzz	-8014
▁Op	-8015
▁stem	-8016
aven	-8017
▁moral	-8018
▁simpl	-8019
▁appeared	-8020
loads	-8021
Option	-8022
▁Media	-8023
▁validate	-8024
such	-8025
▁Carol	-8026
▁30,	-8027
▁Wild	-8028
decode	-8029
▁Creat	-8030
▁harvest	-8031
▁Catholic	-8032
"])	-8033
▁mit	-8034
ancel	-8035
▁applies	-8036
▁studied	-8037
▁naturally	-8038
Ge	-8039
diff	-8040
ipped	-8041
rr	-8042
▁impacts	-8043
itud	-8044
enter	-8045
inputs	-8046
master	-8047
ellect	-8048
origin	-8049
Rel	-8050
▁ban	-8051
▁corpor	-8052
▁registered	-8053
▁distingu	-8054
▁revolution	-8055
▁Big	-8056
▁anyOf	-8057
encoding	-8058
▁Support	-8059
87	-8060
▁bow	-8061
▁calc	-8062
▁rural	-8063
▁framework	-8064
tml	-8065
▁Take	-8066
▁measurement	-8067
itage	-8068
▁pure	-8069
▁separated	-8070
3/	-8071
-04	-8072
▁Know	-8073
raining	-8074
▁Studies	-8075
▁chapter	-8076
conn	-8077
racy	-8078
▁meta	-8079
▁updates	-8080
archy	-8081
▁walls	-8082
▁quantity	-8083
▁infrastructure	-8084
agraph	-8085
▁twice	-8086
▁unittest	-8087
undle	-8088
▁possibly	-8089
fortunately	-8090
IX	-8091
▁64	-8092
Channel	-8093
▁conver	-8094
USD	-8095
▁Bill	-8096
▁metab	-8097
defined	-8098
▁callback	-8099
▁----------	-8100
/%	-8101
▁Mont	-8102
▁army	-8103
sembly	-8104
▁liver	-8105
▁newsp	-8106
▁mechanism	-8107
▁'[	-8108
▁"204":	-8109
delta	-8110
Script	-8111
▁vector	-8112
addr	-8113
cknow	-8114
▁flowers	-8115
▁snapshot	-8116
▁Oper	-8117
idents	-8118
▁parallel	-8119
▁register	-8120
▁Cap	-8121
▁org	-8122
Scopes	-8123
▁Henry	-8124
▁opening	-8125
Pre	-8126
pet	-8127
▁1),	-8128
▁Content	-8129
▁rob	-8130
▁catch	-8131
notation	-8132
▁suffering	-8133
Down	-8134
Mode	-8135
arer	-8136
▁alert	-8137
feed	-8138
▁spo	-8139
IME	-8140
▁29	-8141
▁Ma	-8142
osity	-8143
▁shel	-8144
(0	-8145
▁dut	-8146
▁acts	-8147
▁alpha	-8148
Product	-8149
plements	-8150
▁Indicates	-8151
▁mixed	-8152
▁opened	-8153
eps	-8154
how	-8155
}":	-8156
▁Pay	-8157
▁trend	-8158
▁narrow	-8159
▁proteins	-8160
1-	-8161
▁Sa	-8162
omic	-8163
oute	-8164
▁2019	-8165
▁pump	-8166
▁Finally	-8167
▁closely	-8168
▁constit	-8169
▁discussed	-8170
▁administration	-8171
See	-8172
upd	-8173
When	-8174
▁Wil	-8175
▁glob	-8176
▁finished	-8177
▁priority	-8178
▁17,	-8179
▁dram	-8180
▁Client	-8181
▁prison	-8182
▁players	-8183
▁filtering	-8184
ipes	-8185
▁precis	-8186
▁Additionally	-8187
▁feelings	-8188
▁outcomes	-8189
▁implemented	-8190
▁Constitution	-8191
▁Ze	-8192
Load	-8193
▁Jose	-8194
plugin	-8195
DIR	-8196
One	-8197
img	-8198
▁Have	-8199
Author	-8200
▁Elect	-8201
▁Nature	-8202
▁capable	-8203
2-	-8204
lv	-8205
ien	-8206
▁hyper	-8207
▁talking	-8208
▁audience	-8209
some	-8210
▁Person	-8211
{}	-8212
ada	-8213
▁Figure	-8214
▁fruits	-8215
agues	-8216
▁coff	-8217
detail	-8218
▁Russia	-8219
▁sharing	-8220
(0)	-8221
inity	-8222
▁crucial	-8223
LS	-8224
usr	-8225
Manager	-8226
=%	-8227
github	-8228
ificial	-8229
ocratic	-8230
▁leaving	-8231
?”	-8232
anta	-8233
plan	-8234
▁Ins	-8235
iration	-8236
▁habitat	-8237
▁compare	-8238
rus	-8239
aser	-8240
rays	-8241
▁marg	-8242
▁neur	-8243
ferent	-8244
▁movements	-8245
ny	-8246
System	-8247
▁immun	-8248
▁sports	-8249
▁tal	-8250
▁earn	-8251
▁tips	-8252
__,	-8253
▁Bal	-8254
▁Pers	-8255
▁filled	-8256
▁justice	-8257
43	-8258
gest	-8259
▁2006	-8260
▁regul	-8261
success	-8262
▁detection	-8263
▁recognize	-8264
▁EN	-8265
▁vs	-8266
URCE	-8267
Column	-8268
public	-8269
variable	-8270
VE	-8271
kin	-8272
▁00	-8273
▁Tor	-8274
▁Louis	-8275
▁grand	-8276
▁Policy	-8277
PATH	-8278
▁Emp	-8279
▁ade	-8280
books	-8281
▁ends	-8282
▁Index	-8283
▁circle	-8284
▁Francis	-8285
umbn	-8286
Front	-8287
▁Does	-8288
▁phrase	-8289
imize	-8290
layer	-8291
▁Page	-8292
▁ours	-8293
entity	-8294
ounded	-8295
▁teams	-8296
itivity	-8297
▁sections	-8298
▁highlight	-8299
▁Saf	-8300
cules	-8301
clusive	-8302
▁pictures	-8303
OP	-8304
▁arms	-8305
pages	-8306
▁horiz	-8307
▁Design	-8308
ialogflow	-8309
▁availability	-8310
CD	-8311
▁std	-8312
▁photos	-8313
▁instructions	-8314
Ids	-8315
rer	-8316
columns	-8317
▁millions	-8318
▁nutrition	-8319
▁substance	-8320
▁Div	-8321
DEL	-8322
▁wish	-8323
▁fewer	-8324
▁village	-8325
illa	-8326
▁pag	-8327
▁maps	-8328
▁layers	-8329
Implemented	-8330
SP	-8331
▁gall	-8332
▁intake	-8333
▁conscious	-8334
▁cle	-8335
▁cardi	-8336
▁unable	-8337
▁CA	-8338
▁TV	-8339
▁pig	-8340
▁camera	-8341
esterol	-8342
SQL	-8343
▁satell	-8344
▁capture	-8345
▁clients	-8346
▁SH	-8347
ATED	-8348
loss	-8349
▁lock	-8350
▁Non	-8351
▁plt	-8352
▁sql	-8353
rides	-8354
▁Commit	-8355
▁formal	-8356
timestamp	-8357
asp	-8358
rule	-8359
prise	-8360
▁Learn	-8361
▁horse	-8362
▁parties	-8363
▁decrease	-8364
▁shr	-8365
▁laun	-8366
▁prem	-8367
Command	-8368
▁accompl	-8369
▁aircraft	-8370
▁businesses	-8371
▁environments	-8372
eper	-8373
▁ignored	-8374
▁Tag	-8375
▁dir	-8376
olumes	-8377
indices	-8378
▁agencies	-8379
-08	-8380
▁400	-8381
▁linear	-8382
51	-8383
Term	-8384
grid	-8385
buffer	-8386
▁CH	-8387
▁Dec	-8388
▁fab	-8389
').",	-8390
olumb	-8391
▁domestic	-8392
▁indicating	-8393
[:,	-8394
▁www	-8395
▁valuable	-8396
Range	-8397
▁brown	-8398
▁reprodu	-8399
▁crop	-8400
▁wants	-8401
▁stated	-8402
Empty	-8403
▁agreement	-8404
war	-8405
▁advoc	-8406
▁regularly	-8407
Rate	-8408
▁moon	-8409
reverse	-8410
proxy	-8411
▁TODO	-8412
series	-8413
▁ordered	-8414
▁"3	-8415
Mock	-8416
▁rub	-8417
▁"404":	-8418
▁answers	-8419
▁battery	-8420
▁USA	-8421
Stores	-8422
▁marine	-8423
91	-8424
opts	-8425
rating	-8426
▁crisis	-8427
▁dimensions	-8428
▁agriculture	-8429
izers	-8430
▁recon	-8431
▁deaths	-8432
▁lifest	-8433
▁verbose	-8434
▁18,	-8435
tz	-8436
▁byte	-8437
▁grown	-8438
forward	-8439
▁weapon	-8440
▁Florida	-8441
▁Descri	-8442
▁diversity	-8443
ulary	-8444
▁revealed	-8445
extensions	-8446
▁TypeError	-8447
accept	-8448
icking	-8449
▁border	-8450
ibilities	-8451
▁prevention	-8452
rive	-8453
▁gun	-8454
▁latter	-8455
▁opinion	-8456
▁intelligence	-8457
/2,	-8458
upt	-8459
late	-8460
alian	-8461
owner	-8462
effect	-8463
plicit	-8464
factor	-8465
opping	-8466
gal	-8467
Docs	-8468
▁stret	-8469
▁Canadian	-8470
▁spiritual	-8471
▁ble	-8472
▁resp	-8473
person	-8474
▁accum	-8475
negative	-8476
pression	-8477
▁adopted	-8478
▁SQL	-8479
▁encryption	-8480
Parser	-8481
▁angle	-8482
▁saved	-8483
ARGETING	-8484
▁facilit	-8485
▁Description	-8486
OM	-8487
=0,	-8488
coin	-8489
▁amb	-8490
▁Labor	-8491
▁defic	-8492
▁vehicles	-8493
▁EC	-8494
record	-8495
▁photo	-8496
bad	-8497
▁escape	-8498
▁street	-8499
▁soldiers	-8500
▁principle	-8501
assertFalse	-8502
nan	-8503
▁ju	-8504
▁impossible	-8505
rav	-8506
tab	-8507
fill	-8508
ogram	-8509
▁cars	-8510
▁possibility	-8511
eles	-8512
while	-8513
▁entirely	-8514
▁inflammation	-8515
▁solve	-8516
keyword	-8517
formance	-8518
Sim	-8519
tuple	-8520
▁leaf	-8521
▁loop	-8522
Americ	-8523
▁Street	-8524
▁driving	-8525
UC	-8526
fd	-8527
\":	-8528
▁UUID	-8529
▁Child	-8530
▁Virginia	-8531
▁medications	-8532
tdc	-8533
utive	-8534
tk	-8535
▁AI	-8536
quis	-8537
▁gar	-8538
ascular	-8539
▁lessons	-8540
▁marriage	-8541
mo	-8542
What	-8543
▁wave	-8544
logger	-8545
▁era	-8546
▁transmission	-8547
Ftdc	-8548
▁proxy	-8549
invalid	-8550
▁Retrieve	-8551
▁pul	-8552
▁Mill	-8553
▁figures	-8554
▁assistance	-8555
▁Land	-8556
Catalog	-8557
▁sales	-8558
▁suffer	-8559
▁survival	-8560
▁behaviour	-8561
ican	-8562
▁decline	-8563
▁authorization	-8564
;":	-8565
TEST	-8566
package	-8567
▁stages	-8568
transform	-8569
63	-8570
▁3:	-8571
irror	-8572
factory	-8573
’.	-8574
ito	-8575
JECT	-8576
even	-8577
Batch	-8578
ocabulary	-8579
IRE	-8580
TEXT	-8581
▁thin	-8582
▁massive	-8583
▁displayName	-8584
▁introduction	-8585
contin	-8586
▁calculated	-8587
▁park	-8588
▁Unless	-8589
▁strict	-8590
▁volunte	-8591
▁coo	-8592
caling	-8593
ocracy	-8594
stderr	-8595
▁embed	-8596
▁noise	-8597
▁migration	-8598
binary	-8599
emporary	-8600
▁forecast	-8601
TAL	-8602
ctic	-8603
▁Pan	-8604
▁prediction	-8605
ye	-8606
awn	-8607
zero	-8608
▁asc	-8609
▁queue	-8610
▁warming	-8611
▁defaults	-8612
collection	-8613
nn	-8614
▁infected	-8615
▁suggestions	-8616
Leg	-8617
▁202	-8618
▁displayed	-8619
▁Fire	-8620
Gateway	-8621
▁lin	-8622
▁comma	-8623
▁appearance	-8624
▁Dig	-8625
▁transition	-8626
[1:	-8627
▁experiments	-8628
Av	-8629
zil	-8630
▁Office	-8631
▁LOG	-8632
▁Roy	-8633
stock	-8634
member	-8635
convert	-8636
▁witness	-8637
▁understood	-8638
▁institution	-8639
']:	-8640
▁electro	-8641
chat	-8642
ulin	-8643
▁agree	-8644
▁Professor	-8645
▁shut	-8646
arma	-8647
inating	-8648
LA	-8649
▁mand	-8650
▁Limit	-8651
weights	-8652
▁Document	-8653
)"	-8654
-0000	-8655
price	-8656
▁Change	-8657
▁decide	-8658
▁windows	-8659
▁residents	-8660
pg	-8661
asy	-8662
dep	-8663
nger	-8664
▁Aud	-8665
▁Spe	-8666
▁stats	-8667
Language	-8668
EG	-8669
Ke	-8670
-15	-8671
fri	-8672
▁::	-8673
▁provision	-8674
break	-8675
▁door	-8676
attributes	-8677
▁interaction	-8678
irth	-8679
▁Est	-8680
Report	-8681
▁compr	-8682
▁worker	-8683
currency	-8684
interest	-8685
separated	-8686
Pri	-8687
appe	-8688
▁25,	-8689
▁Face	-8690
▁gathe	-8691
ASE	-8692
▁aqu	-8693
][0-9	-8694
.|	-8695
OB	-8696
▁fly	-8697
▁Chic	-8698
▁theme	-8699
92	-8700
▁doctors	-8701
png	-8702
bind	-8703
▁tele	-8704
▁Peter	-8705
▁imper	-8706
▁Nations	-8707
▁enhance	-8708
▁difficulty	-8709
WARE	-8710
ashion	-8711
▁universe	-8712
▁Ter	-8713
▁bor	-8714
verts	-8715
▁speaking	-8716
classmethod	-8717
▁Australian	-8718
.1	-8719
07	-8720
20,	-8721
▁df	-8722
▁Jud	-8723
▁recycl	-8724
optional	-8725
My	-8726
lon	-8727
minal	-8728
parts	-8729
charge	-8730
▁locale	-8731
▁Southern	-8732
▁2-	-8733
▁Camp	-8734
ropical	-8735
assertAll	-8736
▁leadership	-8737
ipher	-8738
▁2005	-8739
▁Columb	-8740
Use	-8741
▁Gr	-8742
iser	-8743
adding	-8744
▁Soviet	-8745
▁radius	-8746
▁Pet	-8747
▁narr	-8748
▁believ	-8749
▁hidden	-8750
▁signed	-8751
▁evaluate	-8752
onds	-8753
commit	-8754
ABILITY	-8755
▁Natural	-8756
▁tells	-8757
▁intent	-8758
▁prefer	-8759
▁attempts	-8760
wait	-8761
▁stores	-8762
▁circuit	-8763
▁comprehensive	-8764
cos	-8765
oric	-8766
▁Head	-8767
Failure	-8768
▁granted	-8769
Ref	-8770
▁XML	-8771
short	-8772
▁sick	-8773
▁flows	-8774
feature	-8775
▁landscape	-8776
SIZE	-8777
Array	-8778
Names	-8779
▁wear	-8780
▁houses	-8781
▁"400	-8782
aining	-8783
▁Administ	-8784
▁controls	-8785
▁ON	-8786
▁issued	-8787
▁museum	-8788
▁Licensed	-8789
▁computers	-8790
▁Rome	-8791
created	-8792
▁socket	-8793
provider	-8794
▁antibiot	-8795
▁customers	-8796
Pass	-8797
▁Cult	-8798
▁positions	-8799
IGN	-8800
kind	-8801
▁Wik	-8802
document	-8803
▁extensive	-8804
iable	-8805
▁View	-8806
▁assume	-8807
▁interact	-8808
▁neighbor	-8809
▁externalDocs	-8810
▁Du	-8811
osph	-8812
▁rein	-8813
AIL	-8814
__)	-8815
▁CP	-8816
apped	-8817
rooms	-8818
▁indeed	-8819
▁correctly	-8820
▁circumstances	-8821
CM	-8822
uted	-8823
ingly	-8824
Schema	-8825
raries	-8826
▁Study	-8827
▁voltage	-8828
▁feedback	-8829
▁pregnancy	-8830
▁electronic	-8831
▁"401	-8832
▁worse	-8833
▁acknow	-8834
▁verify	-8835
▁defines	-8836
▁handler	-8837
edy	-8838
▁bug	-8839
▁harmful	-8840
▁journey	-8841
eling	-8842
members	-8843
▁sudden	-8844
Folder	-8845
▁fertil	-8846
▁channels	-8847
Long	-8848
▁Mat	-8849
▁myth	-8850
▁Region	-8851
▁digest	-8852
▁guidelines	-8853
-05	-8854
Arg	-8855
▁Eth	-8856
▁attend	-8857
ola	-8858
▁OS	-8859
that	-8860
▁Ill	-8861
▁fav	-8862
▁drawn	-8863
▁authent	-8864
▁drawing	-8865
▁intellect	-8866
DP	-8867
▁happy	-8868
oval	-8869
▁apps	-8870
▁tiny	-8871
tmp	-8872
▁sav	-8873
▁skill	-8874
▁dedicated	-8875
fish	-8876
▁Gal	-8877
clear	-8878
▁Clin	-8879
▁apprec	-8880
original	-8881
readonly	-8882
prob	-8883
▁Paris	-8884
▁fo	-8885
▁bones	-8886
▁Special	-8887
▁symbols	-8888
3::	-8889
UTH	-8890
irty	-8891
Eng	-8892
cpu	-8893
▁Pop	-8894
variables	-8895
▁velocity	-8896
93	-8897
Sp	-8898
sd	-8899
POST	-8900
SION	-8901
▁plain	-8902
ResourceNotFound	-8903
hop	-8904
poly	-8905
▁Gold	-8906
▁Vict	-8907
▁relax	-8908
ifferent	-8909
(__	-8910
elet	-8911
▁kit	-8912
▁coffee	-8913
▁improving	-8914
▁foundation	-8915
▁EV	-8916
▁syndrome	-8917
ita	-8918
Fact	-8919
lists	-8920
night	-8921
zeros	-8922
▁Line	-8923
▁LATIN	-8924
dot	-8925
educ	-8926
hour	-8927
▁ath	-8928
being	-8929
eller	-8930
DATA	-8931
=['	-8932
Non	-8933
aria	-8934
▁mountain	-8935
▁healthcare	-8936
32,	-8937
putes	-8938
▁Down	-8939
▁Among	-8940
develop	-8941
▁forests	-8942
▁concrete	-8943
▁sky	-8944
icide	-8945
reland	-8946
▁apart	-8947
▁dates	-8948
▁funds	-8949
▁plane	-8950
ranches	-8951
▁scheduled	-8952
.;	-8953
▁LI	-8954
Graph	-8955
VALID	-8956
▁dust	-8957
▁slowly	-8958
▁Similar	-8959
▁alph	-8960
center	-8961
▁collabor	-8962
▁worldwide	-8963
Application	-8964
)'	-8965
ivated	-8966
-7	-8967
Ac	-8968
SV	-8969
Cre	-8970
▁ns	-8971
▁Mad	-8972
Entry	-8973
ashes	-8974
osses	-8975
-01-01	-8976
▁dynamic	-8977
onym	-8978
▁signature	-8979
▁recommendations	-8980
AAPL	-8981
▁Try	-8982
▁mm	-8983
▁opposite	-8984
utch	-8985
▁cats	-8986
Retrieve	-8987
Ket	-8988
chant	-8989
▁posts	-8990
▁cholesterol	-8991
hma	-8992
fold	-8993
/$	-8994
([[	-8995
▁achieved	-8996
▁wildlife	-8997
redit	-8998
second	-8999
sn	-9000
Bad	-9001
ULL	-9002
period	-9003
▁possess	-9004
▁Sometimes	-9005
▁supporting	-9006
▁waves	-9007
liament	-9008
▁specifies	-9009
3":	-9010
▁uns	-9011
▁grav	-9012
▁"400":	-9013
▁electron	-9014
▁organized	-9015
MI	-9016
SET	-9017
▁IPv	-9018
cluster	-9019
inction	-9020
▁editor	-9021
▁Climate	-9022
▁observations	-9023
ARD	-9024
mic	-9025
itory	-9026
▁joined	-9027
▁Compute	-9028
▁standing	-9029
▁consumers	-9030
gb	-9031
▁backend	-9032
▁household	-9033
EE	-9034
pi	-9035
=1)	-9036
▁45	-9037
ontal	-9038
▁Click	-9039
▁Disease	-9040
Red	-9041
ivered	-9042
▁turns	-9043
▁readers	-9044
▁Resources	-9045
▁afford	-9046
▁courses	-9047
▁disabled	-9048
▁temporary	-9049
rends	-9050
▁tear	-9051
▁orders	-9052
▁Process	-9053
}.	-9054
born	-9055
liter	-9056
▁trials	-9057
▁diverse	-9058
aph	-9059
otic	-9060
▁Rest	-9061
▁buffer	-9062
▁scheme	-9063
lan	-9064
rons	-9065
assertIs	-9066
▁immediate	-9067
▁translation	-9068
Bu	-9069
she	-9070
▁tick	-9071
lookup	-9072
Ver	-9073
nce	-9074
▁pix	-9075
▁epis	-9076
mental	-9077
▁accuracy	-9078
fetch	-9079
▁mamm	-9080
▁holds	-9081
umbnail	-9082
▁seeing	-9083
▁insects	-9084
▁injuries	-9085
usal	-9086
week	-9087
▁depart	-9088
ui	-9089
▁dil	-9090
▁architecture	-9091
ald	-9092
ioxide	-9093
▁Pract	-9094
▁ships	-9095
Snapshot	-9096
expr	-9097
etion	-9098
Import	-9099
▁abund	-9100
▁laboratory	-9101
▁specifying	-9102
amma	-9103
▁bits	-9104
attachments	-9105
▁truly	-9106
bucket	-9107
▁Format	-9108
▁orient	-9109
▁remark	-9110
▁manufacturing	-9111
-\	-9112
▁},	-9113
▁"401":	-9114
▁reserv	-9115
▁troops	-9116
▁statements	-9117
▁Organization	-9118
▁significance	-9119
igma	-9120
▁param	-9121
▁indu	-9122
▁lots	-9123
▁Though	-9124
▁NotImplemented	-9125
▁od	-9126
erals	-9127
icing	-9128
track	-9129
▁trip	-9130
▁Frank	-9131
▁append	-9132
▁routine	-9133
bits	-9134
There	-9135
asive	-9136
▁Early	-9137
▁Spain	-9138
▁greatly	-9139
kg	-9140
3',	-9141
Block	-9142
▁Hand	-9143
▁html	-9144
omatic	-9145
▁Brown	-9146
heets	-9147
▁Mean	-9148
almost	-9149
modules	-9150
Meta	-9151
▁gal	-9152
▁peak	-9153
▁subs	-9154
atting	-9155
▁quote	-9156
▁sensor	-9157
▁conversion	-9158
▁medication	-9159
▁spon	-9160
Policies	-9161
▁formula	-9162
52	-9163
▁nest	-9164
▁Lu	-9165
▁GET	-9166
sparse	-9167
▁assignment	-9168
[1],	-9169
▁Sl	-9170
ookie	-9171
▁2022	-9172
▁Mars	-9173
▁passing	-9174
▁Chem	-9175
▁Stat	-9176
▁utils	-9177
running	-9178
▁Ireland	-9179
▁competition	-9180
▁improvement	-9181
BS	-9182
]])	-9183
itz	-9184
▁lastModified	-9185
▁professionals	-9186
-09	-9187
AWS	-9188
▁mur	-9189
cores	-9190
▁Care	-9191
▁corn	-9192
▁Scott	-9193
▁plays	-9194
▁stick	-9195
▁insurance	-9196
▁permanent	-9197
▁accessible	-9198
▁constitution	-9199
.2	-9200
rpc	-9201
apps	-9202
>"	-9203
isting	-9204
▁generator	-9205
▁explanation	-9206
▁necessarily	-9207
iso	-9208
abits	-9209
▁Secret	-9210
▁outputs	-9211
▁servers	-9212
Specifies	-9213
ville	-9214
elihood	-9215
▁dental	-9216
▁fiber	-9217
products	-9218
imet	-9219
▁slug	-9220
▁alter	-9221
▁markets	-9222
▁Toolbench	-9223
Unit	-9224
▁ourselves	-9225
best	-9226
▁Job	-9227
▁outer	-9228
grouped	-9229
▁conven	-9230
rim	-9231
▁Cy	-9232
▁Top	-9233
▁Italy	-9234
▁Cancer	-9235
▁indices	-9236
▁younger	-9237
▁Northern	-9238
▁supplies	-9239
▁vulnerable	-9240
olf	-9241
alty	-9242
▁hus	-9243
▁shad	-9244
▁sight	-9245
▁serving	-9246
▁machines	-9247
Provider	-9248
IAL	-9249
ders	-9250
▁Haw	-9251
▁decade	-9252
▁whereas	-9253
▁Attribute	-9254
▁coordinate	-9255
ORS	-9256
ROM	-9257
▁VPC	-9258
▁literal	-9259
▁survive	-9260
▁struggle	-9261
▁references	-9262
vol	-9263
itan	-9264
serve	-9265
▁thor	-9266
▁artif	-9267
▁doubt	-9268
Cons	-9269
bell	-9270
▁fung	-9271
icious	-9272
▁ethnic	-9273
▁utf	-9274
▁Fetch	-9275
istration	-9276
▁lifestyle	-9277
▁authorities	-9278
▁notification	-9279
market	-9280
itative	-9281
▁extensions	-9282
attrs	-9283
▁modify	-9284
▁married	-9285
▁molecules	-9286
▁constructed	-9287
▁regulations	-9288
▁gone	-9289
▁bridge	-9290
▁calcium	-9291
▁emotions	-9292
400	-9293
azy	-9294
ena	-9295
argv	-9296
▁Iss	-9297
▁Filter	-9298
USER	-9299
folder	-9300
▁forget	-9301
-1,	-9302
cour	-9303
▁Bank	-9304
▁redirect	-9305
riers	-9306
▁meth	-9307
▁identifying	-9308
▁recognition	-9309
rust	-9310
quality	-9311
▁colour	-9312
iddleware	-9313
▁furn	-9314
nership	-9315
download	-9316
▁sending	-9317
▁Bu	-9318
▁steel	-9319
▁closer	-9320
▁ranges	-9321
▁supposed	-9322
▁behaviors	-9323
▁mechanisms	-9324
kins	-9325
▁bear	-9326
▁scene	-9327
▁fossil	-9328
▁nearby	-9329
▁communicate	-9330
Cond	-9331
Requests	-9332
depth	-9333
▁acids	-9334
▁manip	-9335
▁smoke	-9336
▁deploy	-9337
▁meetings	-9338
>:	-9339
▁'0	-9340
dirname	-9341
▁stable	-9342
▁destroyed	-9343
▁department	-9344
▁considering	-9345
▁Vari	-9346
Values	-9347
▁trained	-9348
▁Furthermore	-9349
▁ISBN	-9350
▁Teache	-9351
▁Message	-9352
▁conventional	-9353
vs	-9354
Dep	-9355
▁shot	-9356
▁bread	-9357
▁programming	-9358
▁intervention	-9359
Over	-9360
keep	-9361
ERROR	-9362
▁encoded	-9363
▁commands	-9364
sts	-9365
omach	-9366
▁tokens	-9367
▁adds	-9368
iatric	-9369
▁Three	-9370
comment	-9371
▁Parent	-9372
uma	-9373
▁faces	-9374
▁Str	-9375
▁wasn	-9376
▁sweet	-9377
▁Joseph	-9378
▁listen	-9379
▁lookup	-9380
Que	-9381
▁font	-9382
▁hypot	-9383
▁functional	-9384
crif	-9385
▁cho	-9386
1,1,	-9387
idity	-9388
plain	-9389
▁newly	-9390
▁Comput	-9391
▁Otherwise	-9392
JSON	-9393
ucket	-9394
▁supplied	-9395
wing	-9396
Cache	-9397
▁ended	-9398
▁agency	-9399
analysis	-9400
▁whatever	-9401
▁expansion	-9402
▁dependent	-9403
gi	-9404
container	-9405
▁cultures	-9406
▁threshold	-9407
NV	-9408
ella	-9409
built	-9410
▁fails	-9411
▁Reserved	-9412
_,	-9413
How	-9414
▁enzy	-9415
73	-9416
uts	-9417
00:00	-9418
reams	-9419
Mat	-9420
▁panel	-9421
▁discipl	-9422
ographical	-9423
▁beneficial	-9424
news	-9425
▁ama	-9426
▁ultimately	-9427
▁independence	-9428
Sy	-9429
▁Ox	-9430
▁Jac	-9431
router	-9432
▁stimul	-9433
▁reactions	-9434
▁receiving	-9435
▁Brazil	-9436
▁owners	-9437
▁sparse	-9438
▁Richard	-9439
▁thousand	-9440
▁regardless	-9441
▁daughter	-9442
bling	-9443
minent	-9444
▁stroke	-9445
▁Michael	-9446
Environment	-9447
▁philosophy	-9448
=0.	-9449
pol	-9450
▁swim	-9451
▁Board	-9452
▁craft	-9453
▁shapes	-9454
ignments	-9455
▁arrived	-9456
namespace	-9457
▁supplement	-9458
-02	-9459
But	-9460
isk	-9461
rowing	-9462
▁carefully	-9463
▁kilomet	-9464
flo	-9465
▁cup	-9466
▁gram	-9467
▁Column	-9468
ABL	-9469
ala	-9470
More	-9471
ented	-9472
▁drain	-9473
▁Native	-9474
▁PROVID	-9475
▁Should	-9476
▁holding	-9477
▁;	-9478
rey	-9479
▁22,	-9480
▁Camb	-9481
▁chrom	-9482
release	-9483
▁founded	-9484
▁neither	-9485
▁walking	-9486
▁Committee	-9487
▁Path	-9488
▁hero	-9489
managed	-9490
▁agents	-9491
/'	-9492
▁SMALL	-9493
Actions	-9494
▁feeding	-9495
▁vac	-9496
▁scan	-9497
▁engage	-9498
ensitive	-9499
▁dioxide	-9500
▁launched	-9501
▁Currently	-9502
▁university	-9503
ji	-9504
=20	-9505
cert	-9506
▁Adv	-9507
▁county	-9508
▁pounds	-9509
ARY	-9510
▁knows	-9511
▁reviews	-9512
PageToken	-9513
▁colleagues	-9514
FILE	-9515
Roles	-9516
tures	-9517
▁powers	-9518
▁perception	-9519
▁strengthen	-9520
▁gap	-9521
▁verb	-9522
▁liber	-9523
▁astronom	-9524
▁respectively	-9525
hex	-9526
Pool	-9527
▁Bab	-9528
▁cutting	-9529
▁partners	-9530
erior	-9531
▁orbit	-9532
▁setUp	-9533
▁stuff	-9534
▁Effect	-9535
unct	-9536
Label	-9537
▁grew	-9538
▁rising	-9539
cf	-9540
▁21,	-9541
Color	-9542
▁pron	-9543
verbose	-9544
▁identifies	-9545
▁composition	-9546
▁AT	-9547
erical	-9548
evision	-9549
Mark	-9550
Associ	-9551
▁prefe	-9552
idential	-9553
▁instant	-9554
▁vessels	-9555
▁9.	-9556
vars	-9557
▁Bur	-9558
▁Family	-9559
▁occasion	-9560
▁exceptions	-9561
quote	-9562
▁Penn	-9563
▁binding	-9564
▁subscription	-9565
Wid	-9566
yes	-9567
▁'',	-9568
green	-9569
tical	-9570
▁5000	-9571
]"}}},	-9572
▁formats	-9573
▁shif	-9574
pm	-9575
('\	-9576
rovers	-9577
Variable	-9578
]],	-9579
emon	-9580
arwin	-9581
links	-9582
▁Wood	-9583
▁Works	-9584
▁twenty	-9585
▁centers	-9586
▁fighting	-9587
▁31	-9588
▁Wall	-9589
DR	-9590
▁dt	-9591
Legacy	-9592
▁covers	-9593
▁marker	-9594
termStores	-9595
▁photograph	-9596
▁BC	-9597
aken	-9598
plant	-9599
▁facility	-9600
▁delivered	-9601
▁participate	-9602
.<	-9603
={'	-9604
tery	-9605
▁lat	-9606
▁unus	-9607
▁recur	-9608
▁entered	-9609
▁magnetic	-9610
▁compounds	-9611
▁objective	-9612
$'	-9613
2}/	-9614
rams	-9615
▁plus	-9616
itudes	-9617
linear	-9618
▁Georg	-9619
▁robot	-9620
▁studying	-9621
▁nine	-9622
Upload	-9623
ensors	-9624
▁nd	-9625
omes	-9626
▁revision	-9627
▁nur	-9628
▁chat	-9629
▁debt	-9630
▁Times	-9631
Enabled	-9632
▁manual	-9633
▁biggest	-9634
▁hydrogen	-9635
.’	-9636
▁WITH	-9637
▁childhood	-9638
▁conclusion	-9639
ello	-9640
▁coastal	-9641
▁approved	-9642
-%	-9643
perm	-9644
ymph	-9645
▁indicated	-9646
Dec	-9647
▁Oh	-9648
oped	-9649
making	-9650
Le	-9651
kt	-9652
outs	-9653
▁###	-9654
▁193	-9655
▁23,	-9656
▁coe	-9657
▁nan	-9658
through	-9659
▁Empire	-9660
▁critic	-9661
▁artists	-9662
▁enforce	-9663
▁NextToken	-9664
▁pin	-9665
▁Less	-9666
▁breed	-9667
▁committed	-9668
ali	-9669
sey	-9670
▁tea	-9671
▁moves	-9672
services	-9673
▁providers	-9674
▁34	-9675
font	-9676
▁memb	-9677
VICE	-9678
▁III	-9679
▁"10	-9680
▁100,	-9681
▁Cast	-9682
PUT	-9683
orses	-9684
▁Auto	-9685
▁teen	-9686
Change	-9687
Thread	-9688
▁Moreover	-9689
▁election	-9690
▁associate	-9691
unic	-9692
▁19,	-9693
▁Sat	-9694
▁subnet	-9695
▁streams	-9696
▁estimates	-9697
]|	-9698
▁120	-9699
▁Den	-9700
oster	-9701
▁maybe	-9702
▁surve	-9703
▁circul	-9704
assertIn	-9705
▁Academy	-9706
▁organisms	-9707
itt	-9708
▁SE	-9709
▁Put	-9710
rules	-9711
▁feat	-9712
▁sizes	-9713
LOG	-9714
paces	-9715
IntegerField	-9716
indu	-9717
opher	-9718
▁fulf	-9719
▁contamin	-9720
▁declared	-9721
▁presentation	-9722
▁sac	-9723
▁neck	-9724
▁preced	-9725
▁stands	-9726
▁monthly	-9727
▁roof	-9728
FTWARE	-9729
▁ahead	-9730
▁matters	-9731
teen	-9732
isdom	-9733
▁Created	-9734
▁Sciences	-9735
▁transportation	-9736
.\	-9737
pow	-9738
ione	-9739
▁sod	-9740
usive	-9741
////////////////	-9742
82	-9743
SM	-9744
esis	-9745
▁mob	-9746
added	-9747
working	-9748
▁subscri	-9749
▁pipeline	-9750
TF	-9751
-1.0	-9752
Parameters	-9753
irds	-9754
▁Ocean	-9755
▁Possible	-9756
ette	-9757
▁Men	-9758
▁1990	-9759
▁ment	-9760
▁quarter	-9761
▁instruments	-9762
eq	-9763
▁Map	-9764
asters	-9765
▁Chicago	-9766
▁draft	-9767
0}	-9768
▁nose	-9769
associ	-9770
▁butter	-9771
creation	-9772
▁eastern	-9773
escriptor	-9774
’,	-9775
▁Resear	-9776
▁bacterial	-9777
▁crime	-9778
69	-9779
▁?	-9780
emia	-9781
▁Ess	-9782
▁carb	-9783
▁Royal	-9784
▁alias	-9785
▁inhib	-9786
▁therap	-9787
▁offering	-9788
CRE	-9789
lint	-9790
lation	-9791
▁42	-9792
▁Nut	-9793
▁van	-9794
world	-9795
▁veter	-9796
aration	-9797
edge	-9798
▁fif	-9799
history	-9800
▁smooth	-9801
▁Options	-9802
▁".	-9803
onia	-9804
▁adj	-9805
▁conn	-9806
▁Place	-9807
testing	-9808
gression	-9809
▁Unfortunately	-9810
osh	-9811
▁Lin	-9812
▁desire	-9813
▁Chapter	-9814
▁eu	-9815
chen	-9816
avery	-9817
SU	-9818
0001	-9819
regex	-9820
▁debate	-9821
▁ongoing	-9822
▁willing	-9823
▁Contains	-9824
▁Additional	-9825
▁||	-9826
asty	-9827
▁recording	-9828
▁replacement	-9829
)*	-9830
po	-9831
MET	-9832
live	-9833
analy	-9834
▁decay	-9835
ivative	-9836
▁Instance	-9837
▁participation	-9838
▁(3	-9839
estim	-9840
▁tall	-9841
▁prove	-9842
dataset	-9843
▁resulted	-9844
▁fasc	-9845
▁Tensor	-9846
▁preferred	-9847
ittle	-9848
▁rely	-9849
▁operate	-9850
41	-9851
ND	-9852
ushed	-9853
▁vote	-9854
Select	-9855
▁ending	-9856
▁demonstrate	-9857
vas	-9858
CONT	-9859
rape	-9860
▁Sil	-9861
reset	-9862
▁nerve	-9863
enabled	-9864
essment	-9865
▁Target	-9866
Num	-9867
▁"5	-9868
Host	-9869
▁enemy	-9870
▁quotes	-9871
▁handling	-9872
SR	-9873
▁ha	-9874
fire	-9875
Direct	-9876
▁forth	-9877
▁attachment	-9878
etes	-9879
peror	-9880
Failed	-9881
▁outdo	-9882
▁copies	-9883
▁outcome	-9884
condition	-9885
alm	-9886
Comp	-9887
56789	-9888
▁POST	-9889
▁Italian	-9890
two	-9891
driveItem	-9892
▁enumerate	-9893
kit	-9894
stall	-9895
▁housing	-9896
▁stomach	-9897
Ab	-9898
Mon	-9899
sess	-9900
otype	-9901
▁APIs	-9902
▁tank	-9903
antity	-9904
backend	-9905
ashboard	-9906
▁configured	-9907
▁identification	-9908
83	-9909
shap	-9910
▁Super	-9911
▁Indians	-9912
>\	-9913
yy	-9914
ocy	-9915
apse	-9916
▁Look	-9917
▁Spot	-9918
▁Eastern	-9919
▁territory	-9920
▁artificial	-9921
ih	-9922
lik	-9923
▁legs	-9924
▁rect	-9925
________	-9926
5':	-9927
ilds	-9928
mble	-9929
inite	-9930
raham	-9931
▁award	-9932
▁Microsoft	-9933
▁150	-9934
orous	-9935
database	-9936
▁beliefs	-9937
▁disappe	-9938
Ins	-9939
ipt	-9940
STAT	-9941
warning	-9942
▁assumed	-9943
▁examine	-9944
▁measurements	-9945
ende	-9946
▁Tim	-9947
oston	-9948
▁Word	-9949
▁peer	-9950
▁strip	-9951
▁Carolina	-9952
Pack	-9953
zKet	-9954
▁epid	-9955
▁Local	-9956
▁centre	-9957
▁extend	-9958
pars	-9959
▁Low	-9960
subnet	-9961
▁Party	-9962
▁Facebook	-9963
▁demonstrated	-9964
▁tx	-9965
mult	-9966
▁1970	-9967
▁Valley	-9968
dimension	-9969
▁Business	-9970
▁favorite	-9971
▁maintaining	-9972
kl	-9973
▁Ut	-9974
etics	-9975
osion	-9976
commod	-9977
▁employee	-9978
▁publication	-9979
iry	-9980
ften	-9981
Write	-9982
accounts	-9983
▁heating	-9984
▁passage	-9985
GR	-9986
▁liv	-9987
▁clot	-9988
▁mice	-9989
▁Which	-9990
regular	-9991
▁expanded	-9992
▁psychological	-9993
(2,	-9994
ixin	-9995
Works	-9996
▁lies	-9997
▁mold	-9998
ema	-9999
▁Ep	-10000
▁Num	-10001
▁mos	-10002
Multi	-10003
▁Link	-10004
▁habits	-10005
▁smoking	-10006
▁composed	-10007
▁politics	-10008
▁workflow	-10009
arc	-10010
Email	-10011
ected	-10012
ucose	-10013
▁Liter	-10014
Warning	-10015
▁plugin	-10016
:0	-10017
▁URI	-10018
▁bin	-10019
▁Storage	-10020
▁putting	-10021
▁exercises	-10022
Ag	-10023
▁128	-10024
▁repair	-10025
endpoint	-10026
▁Specify	-10027
▁enables	-10028
▁Ur	-10029
Analy	-10030
aptic	-10031
double	-10032
tables	-10033
▁logic	-10034
external	-10035
▁Agricult	-10036
aland	-10037
ruction	-10038
▁logical	-10039
▁Pagination	-10040
▁structural	-10041
▁generations	-10042
oked	-10043
ubes	-10044
asket	-10045
olars	-10046
▁dollars	-10047
dependent	-10048
▁Standard	-10049
▁greenhouse	-10050
71	-10051
▁MA	-10052
▁Upd	-10053
▁Cell	-10054
urb	-10055
▁Ec	-10056
▁MD	-10057
prop	-10058
super	-10059
▁crow	-10060
▁depict	-10061
▁involving	-10062
▁Revolution	-10063
Category	-10064
▁Maximum	-10065
▁credentials	-10066
▁0.5	-10067
▁defe	-10068
APITAL	-10069
▁union	-10070
▁#!	-10071
▁cab	-10072
ching	-10073
cludes	-10074
integr	-10075
▁frequent	-10076
▁stations	-10077
seq	-10078
▁Ref	-10079
▁mining	-10080
packages	-10081
dr	-10082
una	-10083
▁button	-10084
▁physics	-10085
▁SOFTWARE	-10086
▁dent	-10087
▁danger	-10088
▁syntax	-10089
▁earthqu	-10090
▁integrated	-10091
▁predictions	-10092
▁Christmas	-10093
Member	-10094
iology	-10095
secret	-10096
sequence	-10097
NextToken	-10098
▁substantial	-10099
(**	-10100
▁Spring	-10101
Interface	-10102
▁Four	-10103
▁loan	-10104
▁Plant	-10105
▁Instagram	-10106
▁%}	-10107
▁Lead	-10108
▁fell	-10109
▁Exper	-10110
▁nucle	-10111
ampling	-10112
▁Victor	-10113
▁sacrif	-10114
▁definit	-10115
LOW	-10116
▁ER	-10117
▁Given	-10118
DEFAULT	-10119
▁gateway	-10120
▁painting	-10121
▁reliable	-10122
▁paragraph	-10123
Op	-10124
▁glo	-10125
▁fed	-10126
Organ	-10127
venue	-10128
▁rice	-10129
▁alarm	-10130
▁taste	-10131
Feature	-10132
got	-10133
oned	-10134
▁bond	-10135
▁doct	-10136
▁Impro	-10137
▁clock	-10138
▁diagnosed	-10139
▁intellectual	-10140
▁rhy	-10141
▁pand	-10142
▁restore	-10143
including	-10144
▁Available	-10145
▁confirmed	-10146
Sl	-10147
▁Used	-10148
▁organs	-10149
▁wra	-10150
▁ille	-10151
ointer	-10152
states	-10153
▁prohib	-10154
▁coverage	-10155
]?	-10156
Init	-10157
▁Load	-10158
▁blow	-10159
▁listing	-10160
tol	-10161
▁NE	-10162
▁hex	-10163
▁replic	-10164
bel	-10165
▁PL	-10166
acco	-10167
▁thy	-10168
ideck	-10169
▁widget	-10170
▁islands	-10171
▁numeric	-10172
BR	-10173
ITE	-10174
▁",	-10175
urls	-10176
vals	-10177
Allow	-10178
pread	-10179
standard	-10180
▁cooking	-10181
▁controvers	-10182
none	-10183
▁Maj	-10184
▁conj	-10185
▁prec	-10186
▁prev	-10187
▁texts	-10188
▁browser	-10189
▁spending	-10190
atty	-10191
quires	-10192
▁login	-10193
▁owned	-10194
▁Function	-10195
▁calories	-10196
ExtendedProperty	-10197
▁Card	-10198
▁summar	-10199
▁classification	-10200
UND	-10201
_20	-10202
agement	-10203
rection	-10204
▁Martin	-10205
101	-10206
▁Br	-10207
[-1]	-10208
aked	-10209
▁0.05	-10210
▁1980	-10211
widget	-10212
▁Appro	-10213
▁archae	-10214
▁queries	-10215
education	-10216
▁strongly	-10217
heimer	-10218
▁sport	-10219
▁everyday	-10220
exceptions	-10221
QUEST	-10222
ugins	-10223
▁Gard	-10224
contact	-10225
▁override	-10226
▁geographic	-10227
▁interactions	-10228
}-	-10229
ORY	-10230
PLI	-10231
ibl	-10232
Proxy	-10233
havior	-10234
▁brings	-10235
)?	-10236
▁blo	-10237
▁myst	-10238
ilation	-10239
▁Analysis	-10240
Attributes	-10241
▁Describes	-10242
ValueLegacy	-10243
67	-10244
mi	-10245
uh	-10246
▁Play	-10247
▁lect	-10248
▁rivers	-10249
▁execute	-10250
▁moisture	-10251
▁prevents	-10252
▁breathing	-10253
▁maintained	-10254
▁exit	-10255
framework	-10256
▁tracking	-10257
AGS	-10258
▁EU	-10259
▁marks	-10260
Members	-10261
Resources	-10262
▁Community	-10263
▁partition	-10264
▁validation	-10265
ocur	-10266
consum	-10267
▁Total	-10268
▁tissues	-10269
iary	-10270
▁kidney	-10271
ierarchy	-10272
▁branches	-10273
▁surfaces	-10274
▁observation	-10275
▁boys	-10276
▁soul	-10277
▁tight	-10278
▁nested	-10279
▁descending	-10280
LY	-10281
Hist	-10282
infl	-10283
▁Hall	-10284
▁Contact	-10285
▁fashion	-10286
▁Consider	-10287
rog	-10288
IMIT	-10289
lets	-10290
pled	-10291
▁uri	-10292
party	-10293
▁volcan	-10294
▁Database	-10295
Net	-10296
ohyd	-10297
▁taxes	-10298
▁Unauthorized	-10299
IDS	-10300
Upd	-10301
Post	-10302
▁coc	-10303
numpy	-10304
(1)/2,	-10305
Header	-10306
quiring	-10307
▁Agency	-10308
▁router	-10309
idespread	-10310
▁substances	-10311
▁preparation	-10312
ruit	-10313
▁doi	-10314
▁bull	-10315
achine	-10316
▁CAPITAL	-10317
▁guidance	-10318
▁variation	-10319
▁Researchers	-10320
Co	-10321
MT	-10322
drop	-10323
alias	-10324
found	-10325
Health	-10326
window	-10327
ynamic	-10328
▁couns	-10329
▁sought	-10330
▁stopped	-10331
('%	-10332
isp	-10333
▁"'	-10334
outube	-10335
▁reduces	-10336
▁sessions	-10337
AV	-10338
Can	-10339
▁Vit	-10340
ritis	-10341
▁logs	-10342
▁fever	-10343
▁worry	-10344
▁designs	-10345
▁waiting	-10346
▁industries	-10347
cb	-10348
vin	-10349
▁2004	-10350
identifier	-10351
▁QR	-10352
days	-10353
game	-10354
▁adequate	-10355
8)	-10356
Ne	-10357
CLUD	-10358
▁Age	-10359
▁nob	-10360
▁Irish	-10361
Contact	-10362
ruption	-10363
▁corner	-10364
▁relief	-10365
▁AP	-10366
esity	-10367
▁cash	-10368
▁Coast	-10369
▁backup	-10370
▁Kingdom	-10371
mus	-10372
▁dense	-10373
▁checked	-10374
▁domains	-10375
▁subprocess	-10376
▁experimental	-10377
▁opts	-10378
▁District	-10379
▁employed	-10380
▁drought	-10381
▁boundary	-10382
unks	-10383
apsed	-10384
aneous	-10385
▁modules	-10386
▁worship	-10387
functions	-10388
**2	-10389
Open	-10390
locks	-10391
▁negot	-10392
▁interview	-10393
▁legislation	-10394
▁cav	-10395
CTION	-10396
Price	-10397
Storage	-10398
▁damaged	-10399
▁explicitly	-10400
)\	-10401
11.	-10402
imb	-10403
▁Fact	-10404
SG	-10405
▁loved	-10406
developer	-10407
rac	-10408
▁USE	-10409
Guide	-10410
▁papers	-10411
▁reporting	-10412
So	-10413
haust	-10414
▁Fund	-10415
ocking	-10416
▁finger	-10417
sections	-10418
▁intervals	-10419
nel	-10420
oln	-10421
olds	-10422
river	-10423
▁Sund	-10424
ignore	-10425
▁minds	-10426
▁Online	-10427
▁merely	-10428
clos	-10429
backs	-10430
▁rocks	-10431
▁fourth	-10432
▁propag	-10433
▁belongs	-10434
fp	-10435
Fig	-10436
▁Tom	-10437
▁arrest	-10438
▁reform	-10439
▁respir	-10440
channels	-10441
▁restaur	-10442
▁scholar	-10443
interface	-10444
[1])	-10445
leet	-10446
matic	-10447
trace	-10448
units	-10449
▁Scot	-10450
growth	-10451
▁ownership	-10452
iah	-10453
▁LO	-10454
▁Incre	-10455
▁nervous	-10456
▁collaboration	-10457
255	-10458
scal	-10459
▁Allowed	-10460
▁exclude	-10461
▁removal	-10462
▁trouble	-10463
▁"<	-10464
ategy	-10465
olesc	-10466
▁Exec	-10467
▁Never	-10468
▁catalog	-10469
▁endpoints	-10470
ao	-10471
800	-10472
oples	-10473
herent	-10474
▁guard	-10475
▁obesity	-10476
▁accessPackage	-10477
__.	-10478
Thost	-10479
▁icon	-10480
extract	-10481
outheast	-10482
ThostFtdc	-10483
Pred	-10484
warn	-10485
▁Too	-10486
▁beings	-10487
deviceManagement	-10488
ETE	-10489
ady	-10490
Dest	-10491
▁Inf	-10492
▁warn	-10493
▁trends	-10494
▁encrypt	-10495
osc	-10496
airy	-10497
▁Trad	-10498
▁hole	-10499
▁proto	-10500
estions	-10501
▁acceler	-10502
▁insulin	-10503
▁minerals	-10504
▁universal	-10505
▁conference	-10506
Iter	-10507
▁boy	-10508
Serial	-10509
▁usual	-10510
Factory	-10511
gressive	-10512
▁victims	-10513
▁Atlantic	-10514
sync	-10515
▁Holy	-10516
▁Node	-10517
▁facing	-10518
▁finish	-10519
▁Several	-10520
▁historic	-10521
wiki	-10522
\".",	-10523
opedia	-10524
simple	-10525
▁pursu	-10526
▁recept	-10527
▁proceed	-10528
▁requirement	-10529
Bl	-10530
deg	-10531
3,3,	-10532
▁thorough	-10533
INST	-10534
fied	-10535
Stack	-10536
astore	-10537
▁males	-10538
▁compound	-10539
'?	-10540
Cap	-10541
▁AM	-10542
▁Micro	-10543
▁honor	-10544
▁poison	-10545
▁thanks	-10546
TM	-10547
▁Hor	-10548
▁jump	-10549
Unless	-10550
igrate	-10551
▁kernel	-10552
▁visited	-10553
▁somewhat	-10554
slug	-10555
inson	-10556
▁dialog	-10557
▁clothing	-10558
▁shipping	-10559
nb	-10560
flag	-10561
▁[])	-10562
▁tut	-10563
once	-10564
▁mild	-10565
calendarGroup	-10566
%)	-10567
IZ	-10568
rb	-10569
ami	-10570
heric	-10571
▁mood	-10572
▁proof	-10573
▁wheel	-10574
▁claimed	-10575
▁viruses	-10576
▁definitions	-10577
▁ingredients	-10578
(3	-10579
012	-10580
raq	-10581
decl	-10582
uels	-10583
▁Hill	-10584
▁seemed	-10585
▁husband	-10586
▁equation	-10587
HD	-10588
uer	-10589
▁Mel	-10590
▁spl	-10591
income	-10592
▁pylint	-10593
▁accommod	-10594
▁attribut	-10595
▁spectrum	-10596
▁Reference	-10597
▁returning	-10598
▁television	-10599
4:	-10600
`"	-10601
rine	-10602
▁arbit	-10603
▁widespread	-10604
{%	-10605
rium	-10606
adder	-10607
▁CONF	-10608
▁mess	-10609
elcome	-10610
▁Cross	-10611
Protocol	-10612
▁Without	-10613
▁printed	-10614
/*	-10615
sym	-10616
phin	-10617
▁Sand	-10618
▁OAuth	-10619
▁banks	-10620
▁proportion	-10621
▁MO	-10622
▁scr	-10623
▁lake	-10624
▁medic	-10625
▁amazing	-10626
▁turning	-10627
supported	-10628
▁complicated	-10629
va	-10630
▁1],	-10631
▁clar	-10632
▁tons	-10633
▁constraints	-10634
▁discrimination	-10635
▁SP	-10636
erty	-10637
▁0],	-10638
▁attrs	-10639
▁retry	-10640
▁Indust	-10641
▁suffix	-10642
▁writes	-10643
▁Zealand	-10644
▁mechanical	-10645
▁destruction	-10646
▁aband	-10647
▁Supported	-10648
Watch	-10649
▁Contin	-10650
▁asking	-10651
▁phenomenon	-10652
▁transactions	-10653
▁createdDateTime	-10654
times	-10655
remote	-10656
▁Light	-10657
▁presents	-10658
▁initially	-10659
▁constantly	-10660
▁describing	-10661
▁Application	-10662
2(	-10663
6)	-10664
yaml	-10665
▁Http	-10666
lights	-10667
itoring	-10668
▁fairly	-10669
examples	-10670
▁privile	-10671
▁interactive	-10672
git	-10673
TRIB	-10674
repe	-10675
▁rig	-10676
▁seat	-10677
verity	-10678
[3	-10679
yal	-10680
arts	-10681
▁Rom	-10682
▁tract	-10683
▁serves	-10684
▁duplicate	-10685
▁intention	-10686
conv	-10687
plied	-10688
▁Force	-10689
▁reward	-10690
ortheast	-10691
▁Systems	-10692
▁realize	-10693
▁formatted	-10694
)',	-10695
friend	-10696
▁Asian	-10697
▁Safety	-10698
▁asthma	-10699
▁engaged	-10700
Iam	-10701
inar	-10702
▁(0,	-10703
▁Cir	-10704
olver	-10705
▁Apple	-10706
Schedule	-10707
▁burning	-10708
▁neighborhood	-10709
calendarGroups	-10710
bra	-10711
brid	-10712
▁#!/	-10713
▁uniform	-10714
Stop	-10715
cards	-10716
fairs	-10717
▁Korea	-10718
▁guess	-10719
lections	-10720
▁Command	-10721
▁Section	-10722
▁glucose	-10723
▁challenging	-10724
▁essentially	-10725
__':	-10726
dtypes	-10727
▁console	-10728
▁opposed	-10729
▁executed	-10730
▁Represents	-10731
Keys	-10732
▁Sing	-10733
css	-10734
edu	-10735
▁que	-10736
incoln	-10737
▁chest	-10738
▁dealing	-10739
▁abstract	-10740
▁molecular	-10741
iodiversity	-10742
▁3-	-10743
▁IV	-10744
▁Jul	-10745
▁Viet	-10746
▁bind	-10747
abases	-10748
▁theore	-10749
vestment	-10750
▁females	-10751
▁identical	-10752
▁PC	-10753
▁24,	-10754
▁encount	-10755
1}	-10756
32)	-10757
▁Ve	-10758
▁proven	-10759
▁absence	-10760
rolled	-10761
▁async	-10762
▁consume	-10763
▁precision	-10764
%.	-10765
ouds	-10766
▁RFC	-10767
icken	-10768
rained	-10769
▁pregnant	-10770
ints	-10771
▁Alz	-10772
▁Wal	-10773
▁lie	-10774
▁curve	-10775
ARK	-10776
MIN	-10777
▁SD	-10778
loop	-10779
enant	-10780
▁radical	-10781
▁captured	-10782
▁commitment	-10783
dl	-10784
lu	-10785
yr	-10786
▁"#	-10787
▁fra	-10788
ocated	-10789
▁hotel	-10790
1),	-10791
▁Could	-10792
▁zones	-10793
▁bigger	-10794
▁planned	-10795
▁preserve	-10796
▁Protection	-10797
ston	-10798
▁OTH	-10799
▁tor	-10800
▁nova	-10801
Accept	-10802
ResourceRoles	-10803
?"	-10804
▁CD	-10805
▁Pen	-10806
▁beauty	-10807
▁careful	-10808
▁Administration	-10809
COM	-10810
ricing	-10811
screen	-10812
▁reset	-10813
▁Forest	-10814
▁disaster	-10815
plications	-10816
%2	-10817
WE	-10818
itals	-10819
ounce	-10820
▁Remove	-10821
▁pytest	-10822
▁Manager	-10823
▁analyze	-10824
▁eliminate	-10825
▁Collection	-10826
ipy	-10827
plus	-10828
closed	-10829
counter	-10830
Activity	-10831
▁vocabulary	-10832
uan	-10833
▁"-	-10834
rend	-10835
▁meal	-10836
▁visitors	-10837
▁newspaper	-10838
▁satellite	-10839
era	-10840
▁tm	-10841
▁Unit	-10842
▁blind	-10843
▁displ	-10844
▁considerable	-10845
flictException	-10846
NN	-10847
oa	-10848
10)	-10849
mal	-10850
schedul	-10851
▁fellow	-10852
▁ticker	-10853
▁announced	-10854
Inv	-10855
▁Yes	-10856
android	-10857
▁immigr	-10858
▁equally	-10859
▁Star	-10860
▁alle	-10861
nament	-10862
asets	-10863
▁renewable	-10864
big	-10865
span	-10866
vector	-10867
▁officers	-10868
▁printing	-10869
Permission	-10870
amel	-10871
iest	-10872
▁28,	-10873
▁indo	-10874
socket	-10875
▁falls	-10876
ishment	-10877
▁counts	-10878
▁directed	-10879
ationError	-10880
▁implications	-10881
▁Naz	-10882
azine	-10883
▁arts	-10884
▁tube	-10885
locale	-10886
CLUDING	-10887
EP	-10888
Local	-10889
holders	-10890
irection	-10891
Ut	-10892
▁CR	-10893
etary	-10894
▁".",	-10895
▁2003	-10896
▁horses	-10897
▁incred	-10898
▁Director	-10899
▁theories	-10900
▁Scientists	-10901
▁imagine	-10902
▁screening	-10903
▁capabilities	-10904
LI	-10905
rf	-10906
[2]	-10907
apply	-10908
▁observe	-10909
▁targeted	-10910
▁Operation	-10911
▁uncertain	-10912
=0)	-10913
upper	-10914
▁Jeff	-10915
▁clusters	-10916
▁isolated	-10917
▁2021	-10918
logging	-10919
▁desert	-10920
▁restrictions	-10921
sent	-10922
ucky	-10923
▁188	-10924
Close	-10925
▁caught	-10926
▁musical	-10927
▁examination	-10928
reek	-10929
seed	-10930
Window	-10931
▁irrit	-10932
▁phosph	-10933
▁biology	-10934
ki	-10935
16,	-10936
Opt	-10937
cho	-10938
▁tu	-10939
▁DIS	-10940
commun	-10941
▁'485':	-10942
▁rarely	-10943
▁AC	-10944
▁unw	-10945
▁compens	-10946
▁optical	-10947
▁roughly	-10948
▁Alzheimer	-10949
▁partnership	-10950
Do	-10951
READ	-10952
▁refe	-10953
▁combat	-10954
▁substit	-10955
▁bringing	-10956
▁listening	-10957
Med	-10958
bet	-10959
oral	-10960
▁Sar	-10961
oping	-10962
sleep	-10963
pytest	-10964
shared	-10965
▁Simple	-10966
---	-10967
hips	-10968
orms	-10969
thritis	-10970
▁athlet	-10971
▁advantages	-10972
▁interpretation	-10973
▁pit	-10974
ivate	-10975
istical	-10976
▁proved	-10977
▁knowing	-10978
▁1/	-10979
orph	-10980
▁cra	-10981
▁Rock	-10982
tenant	-10983
▁Dutch	-10984
▁succeed	-10985
▁anywhere	-10986
7)	-10987
elve	-10988
iture	-10989
▁Prom	-10990
Record	-10991
Whether	-10992
together	-10993
▁seeking	-10994
▁friendly	-10995
(0.	-10996
-16	-10997
sen	-10998
▁Gets	-10999
▁bees	-11000
Maximum	-11001
ventions	-11002
(-	-11003
mn	-11004
01,	-11005
ENS	-11006
good	-11007
opath	-11008
▁edit	-11009
▁lens	-11010
▁traditions	-11011
▁sensitivity	-11012
▁contemporary	-11013
WR	-11014
har	-11015
mun	-11016
▁IT	-11017
▁sq	-11018
')),	-11019
▁(1)	-11020
▁Mah	-11021
small	-11022
iological	-11023
▁ImportError	-11024
▁commission	-11025
bro	-11026
resp	-11027
▁Unt	-11028
▁Treatment	-11029
▁permitted	-11030
▁Conservation	-11031
edit	-11032
usage	-11033
▁Iraq	-11034
▁relate	-11035
▁earliest	-11036
▁33	-11037
arest	-11038
itual	-11039
esides	-11040
reater	-11041
▁mineral	-11042
▁carrying	-11043
NotFoundFault	-11044
++	-11045
lds	-11046
EMPL	-11047
FAIL	-11048
igan	-11049
Chart	-11050
Queue	-11051
agger	-11052
amins	-11053
▁cycl	-11054
matory	-11055
▁Altern	-11056
▁losses	-11057
▁Columbia	-11058
▁containers	-11059
▁effectiveness	-11060
ogy	-11061
brew	-11062
character	-11063
▁settlement	-11064
▁surprising	-11065
MAX	-11066
▁flour	-11067
▁overl	-11068
Dialogflow	-11069
▁predicted	-11070
▁CThostFtdc	-11071
ResourceScope	-11072
-03	-11073
Box	-11074
▁BE	-11075
route	-11076
▁bath	-11077
mediate	-11078
▁indent	-11079
(2)	-11080
Mixin	-11081
Route	-11082
acent	-11083
angel	-11084
▁Muslim	-11085
▁slavery	-11086
▁cryptocur	-11087
▁fn	-11088
mers	-11089
▁spin	-11090
▁refug	-11091
ammatory	-11092
▁Lincoln	-11093
▁examined	-11094
▁vertical	-11095
▁difficulties	-11096
ostic	-11097
▁configure	-11098
▁gradually	-11099
ffff	-11100
▁-0.	-11101
▁dys	-11102
▁Comment	-11103
▁informed	-11104
▁communications	-11105
_3	-11106
Pat	-11107
pair	-11108
▁hur	-11109
ading	-11110
ocker	-11111
▁Unlike	-11112
▁parsed	-11113
idr	-11114
vard	-11115
ocate	-11116
private	-11117
▁Centre	-11118
amination	-11119
▁abnormal	-11120
/200	-11121
async	-11122
erving	-11123
▁Address	-11124
NE	-11125
PH	-11126
Zone	-11127
aska	-11128
iana	-11129
uris	-11130
▁cfg	-11131
▁Thanks	-11132
▁influenced	-11133
ci	-11134
Str	-11135
Tra	-11136
cir	-11137
▁4)	-11138
ceive	-11139
▁Swed	-11140
Bucket	-11141
NET	-11142
▁48	-11143
▁Pot	-11144
▁dial	-11145
cription	-11146
▁writers	-11147
▁happening	-11148
ima	-11149
▁ok	-11150
▁Los	-11151
+00:00	-11152
▁quota	-11153
▁tropical	-11154
categories	-11155
127	-11156
repo	-11157
}}},	-11158
▁Did	-11159
▁1.",	-11160
▁OTHER	-11161
▁babies	-11162
▁Johnson	-11163
▁factory	-11164
▁Calculate	-11165
accessReview	-11166
configuration	-11167
ulty	-11168
igate	-11169
▁scar	-11170
▁minItems	-11171
environment	-11172
▁Opt	-11173
endor	-11174
▁acute	-11175
▁Supreme	-11176
▁concerning	-11177
1.0	-11178
blem	-11179
prom	-11180
ishop	-11181
▁driveItem	-11182
-18	-11183
▁250	-11184
amine	-11185
▁Phot	-11186
▁dose	-11187
▁depos	-11188
%3	-11189
▁27,	-11190
bered	-11191
▁Moon	-11192
▁Road	-11193
▁copper	-11194
▁deeper	-11195
▁driven	-11196
▁retain	-11197
▁Reading	-11198
▁weapons	-11199
compatible	-11200
2).	-11201
acci	-11202
▁WAF	-11203
otton	-11204
Module	-11205
▁paras	-11206
▁charged	-11207
▁nitrogen	-11208
▁encouraged	-11209
player	-11210
▁roads	-11211
Computes	-11212
1).	-11213
rene	-11214
unnel	-11215
▁1960	-11216
▁Jacob	-11217
▁chlor	-11218
▁racial	-11219
▁tenant	-11220
▁cancell	-11221
▁innovation	-11222
)|	-11223
km	-11224
▁Matt	-11225
Exists	-11226
radius	-11227
▁dream	-11228
▁"403":	-11229
▁profit	-11230
▁threats	-11231
▁maxItems	-11232
Lib	-11233
ura	-11234
anger	-11235
abling	-11236
▁Enter	-11237
▁defense	-11238
Information	-11239
▁Christians	-11240
▁sear	-11241
before	-11242
runner	-11243
ubernet	-11244
▁infant	-11245
▁undert	-11246
▁province	-11247
▁addressed	-11248
("%	-11249
9999	-11250
sqrt	-11251
vation	-11252
▁defend	-11253
▁planets	-11254
ubernetes	-11255
Hel	-11256
Http	-11257
foot	-11258
▁galax	-11259
▁defect	-11260
▁ceremon	-11261
▁broadcast	-11262
Certificate	-11263
▁experiencing	-11264
▁investigation	-11265
sur	-11266
▁PR	-11267
▁Hom	-11268
▁emit	-11269
ulating	-11270
▁terror	-11271
▁spatial	-11272
▁managing	-11273
▁treating	-11274
▁4:	-11275
▁finds	-11276
▁fabric	-11277
▁preventing	-11278
Compl	-11279
▁"500	-11280
▁evil	-11281
▁songs	-11282
poration	-11283
HTML	-11284
eness	-11285
updated	-11286
▁analyzed	-11287
'''	-11288
▁fer	-11289
▁Java	-11290
▁aims	-11291
▁Introdu	-11292
▁metabol	-11293
▁criminal	-11294
validation	-11295
▁contribution	-11296
]}}]	-11297
▁vib	-11298
▁Analy	-11299
▁await	-11300
▁edition	-11301
▁populated	-11302
Man	-11303
tic	-11304
compan	-11305
▁scholars	-11306
▁intensity	-11307
pn	-11308
chor	-11309
ntax	-11310
refix	-11311
▁Polit	-11312
▁Oxford	-11313
▁Twitter	-11314
ERT	-11315
hor	-11316
utable	-11317
▁Small	-11318
▁hazard	-11319
▁intense	-11320
sufficient	-11321
[1].	-11322
roat	-11323
▁0),	-11324
▁Math	-11325
▁Based	-11326
▁stead	-11327
▁styles	-11328
▁Perhaps	-11329
(3)	-11330
ila	-11331
uum	-11332
▁1-	-11333
▁Ro	-11334
▁mg	-11335
▁TYPE	-11336
▁Write	-11337
deleted	-11338
▁permit	-11339
▁recall	-11340
versation	-11341
▁breeding	-11342
IAM	-11343
adr	-11344
▁75	-11345
▁256	-11346
▁Volume	-11347
▁plenty	-11348
override	-11349
ovascular	-11350
parameter	-11351
▁indigenous	-11352
``.	-11353
▁WH	-11354
nova	-11355
▁Ask	-11356
▁Send	-11357
▁girl	-11358
SOURCE	-11359
▁fault	-11360
▁fishing	-11361
▁insight	-11362
Generates	-11363
▁MS	-11364
Writ	-11365
disk	-11366
▁cort	-11367
▁recover	-11368
▁marketing	-11369
▁sequences	-11370
▁DC	-11371
▁rv	-11372
Card	-11373
HOST	-11374
▁UTC	-11375
▁Team	-11376
isters	-11377
▁elected	-11378
TypeError	-11379
DL	-11380
:",	-11381
sex	-11382
sis	-11383
Last	-11384
▁26,	-11385
▁bias	-11386
sorted	-11387
▁Avoid	-11388
▁Music	-11389
▁sharp	-11390
reshape	-11391
▁KeyError	-11392
▁consumed	-11393
▁mountains	-11394
▁performing	-11395
REG	-11396
▁Due	-11397
▁laid	-11398
▁enorm	-11399
▁digits	-11400
▁viewed	-11401
▁ecosystem	-11402
▁inventory	-11403
▁directions	-11404
pub	-11405
▁aged	-11406
indent	-11407
▁prime	-11408
commend	-11409
▁Template	-11410
▁Developer	-11411
▁regulation	-11412
>`	-11413
GS	-11414
601	-11415
▁'#	-11416
▁Pur	-11417
▁ctx	-11418
▁Multi	-11419
▁fatal	-11420
American	-11421
▁Justice	-11422
▁acknowled	-11423
▁//	-11424
sylv	-11425
dumps	-11426
▁fest	-11427
▁Video	-11428
▁holes	-11429
▁slave	-11430
▁sitting	-11431
Ste	-11432
()),	-11433
1111	-11434
etts	-11435
requ	-11436
▁alb	-11437
ioxid	-11438
ystems	-11439
▁Indeed	-11440
▁Remember	-11441
staticmethod	-11442
▁Cat	-11443
iments	-11444
▁hence	-11445
▁Boston	-11446
▁Modern	-11447
▁inspect	-11448
curs	-11449
irms	-11450
▁Digital	-11451
▁unusual	-11452
▁automatic	-11453
bul	-11454
uits	-11455
oured	-11456
▁registration	-11457
▁consideration	-11458
ront	-11459
▁shock	-11460
outputs	-11461
▁panels	-11462
▁Georgia	-11463
▁consent	-11464
=_	-11465
fb	-11466
▁Cost	-11467
▁beta	-11468
square	-11469
▁Right	-11470
iations	-11471
seconds	-11472
▁Invoke	-11473
▁rating	-11474
▁temple	-11475
▁inspired	-11476
▁removing	-11477
:``	-11478
omial	-11479
▁wage	-11480
▁oldest	-11481
internal	-11482
▁rational	-11483
PN	-11484
UST	-11485
elta	-11486
▁Ven	-11487
000000	-11488
▁chunk	-11489
▁intern	-11490
▁varieties	-11491
1",	-11492
weet	-11493
▁ups	-11494
expect	-11495
▁Young	-11496
▁honey	-11497
payment	-11498
▁revers	-11499
▁tempor	-11500
▁dietary	-11501
▁healing	-11502
▁resolve	-11503
Err	-11504
▁PER	-11505
▁pla	-11506
ograp	-11507
otherapy	-11508
versions	-11509
▁transformation	-11510
NC	-11511
▁AL	-11512
many	-11513
▁Sir	-11514
embed	-11515
▁hook	-11516
▁Origin	-11517
▁shares	-11518
▁deviation	-11519
oard	-11520
▁Kar	-11521
astro	-11522
▁heads	-11523
▁mortality	-11524
▁prominent	-11525
▁37	-11526
Tree	-11527
▁quiet	-11528
Setting	-11529
unicipal	-11530
▁carbohyd	-11531
▁cleaning	-11532
permission	-11533
▁physician	-11534
▁mathematics	-11535
aya	-11536
▁inn	-11537
▁farming	-11538
▁boundaries	-11539
Export	-11540
▁Heart	-11541
▁breaks	-11542
▁pestic	-11543
▁adolesc	-11544
()))	-11545
▁lowest	-11546
▁ritual	-11547
▁demands	-11548
▁exhaust	-11549
▁sensors	-11550
▁equality	-11551
▁stronger	-11552
:\	-11553
Pe	-11554
▁Email	-11555
▁fragment	-11556
parentGroup	-11557
(%	-11558
zes	-11559
Files	-11560
Parse	-11561
codes	-11562
▁Tags	-11563
theless	-11564
▁arrang	-11565
▁flower	-11566
▁senior	-11567
▁wisdom	-11568
productive	-11569
▁scientist	-11570
.).	-11571
dirs	-11572
made	-11573
quence	-11574
clusions	-11575
▁inhabit	-11576
▁neutral	-11577
▁checking	-11578
▁sentences	-11579
▁functioning	-11580
RES	-11581
UTE	-11582
▁Pak	-11583
▁Site	-11584
▁faced	-11585
▁targeting	-11586
▁wa	-11587
▁lar	-11588
▁les	-11589
▁biom	-11590
▁lymph	-11591
average	-11592
ventory	-11593
▁Francisco	-11594
sup	-11595
agen	-11596
▁bag	-11597
▁Blue	-11598
serialize	-11599
▁occurring	-11600
[-	-11601
▁tar	-11602
▁intest	-11603
snapshot	-11604
+1	-11605
FIL	-11606
▁Na	-11607
acle	-11608
Phone	-11609
▁hide	-11610
▁wine	-11611
▁dance	-11612
central	-11613
▁forming	-11614
▁characterized	-11615
▁189	-11616
▁cart	-11617
ighter	-11618
▁Print	-11619
▁giant	-11620
▁hosts	-11621
require	-11622
▁emphasis	-11623
▁comfortable	-11624
('--	-11625
FFFF	-11626
cuss	-11627
▁DNS	-11628
▁aer	-11629
amber	-11630
layers	-11631
▁loaded	-11632
▁slaves	-11633
controller	-11634
▁democracy	-11635
BI	-11636
uru	-11637
▁Lo	-11638
▁Ser	-11639
enger	-11640
gered	-11641
posts	-11642
Region	-11643
▁overw	-11644
ocolate	-11645
▁contributed	-11646
CountResponse	-11647
mk	-11648
12.	-11649
REE	-11650
▁PART	-11651
▁Recent	-11652
▁focuses	-11653
▁heavily	-11654
▁incident	-11655
ISO	-11656
star	-11657
▁[2,	-11658
Python	-11659
▁whenever	-11660
TS	-11661
{{	-11662
-06	-11663
2),	-11664
▁gift	-11665
▁fract	-11666
▁diameter	-11667
▁overview	-11668
▁platforms	-11669
▁Dictionary	-11670
▁fp	-11671
FNGL	-11672
INGS	-11673
▁mosqu	-11674
▁lights	-11675
▁submitted	-11676
▁Conference	-11677
bus	-11678
when	-11679
▁"__	-11680
erman	-11681
rance	-11682
▁raises	-11683
▁covering	-11684
▁mathematical	-11685
hew	-11686
tri	-11687
▁Ly	-11688
▁Grand	-11689
▁Watch	-11690
▁gained	-11691
Execution	-11692
▁integrate	-11693
-1)	-11694
XML	-11695
mid	-11696
▁nin	-11697
▁poem	-11698
▁imaging	-11699
▁neutron	-11700
▁sorting	-11701
-0000-0000	-11702
UUID	-11703
▁Hot	-11704
outer	-11705
▁laser	-11706
▁Integr	-11707
▁expectations	-11708
}}	-11709
▁Ari	-11710
dense	-11711
hello	-11712
topic	-11713
reduce	-11714
special	-11715
▁differ	-11716
putation	-11717
▁Neg	-11718
▁pod	-11719
uction	-11720
comfort	-11721
▁pointed	-11722
connected	-11723
▁Iran	-11724
▁merge	-11725
complex	-11726
aneously	-11727
▁evolved	-11728
▁dominant	-11729
▁suffered	-11730
▁decreased	-11731
▁elsewhere	-11732
▁ul	-11733
Quota	-11734
▁hall	-11735
arters	-11736
▁tracks	-11737
oul	-11738
ANGE	-11739
ilib	-11740
▁Edward	-11741
▁strike	-11742
▁traits	-11743
▁applying	-11744
Permissions	-11745
.%	-11746
▁ts	-11747
slice	-11748
elfare	-11749
ustain	-11750
endswith	-11751
▁floating	-11752
▁hardware	-11753
permissions	-11754
▁Throttling	-11755
▁protecting	-11756
▁translated	-11757
'"	-11758
ati	-11759
▁31,	-11760
ullying	-11761
▁attach	-11762
▁strain	-11763
▁filtered	-11764
information	-11765
▁38	-11766
▁Hum	-11767
▁tmp	-11768
▁Little	-11769
▁Unique	-11770
▁imported	-11771
nut	-11772
▁Tik	-11773
final	-11774
tokens	-11775
▁grows	-11776
▁Division	-11777
▁Physical	-11778
▁abilities	-11779
▁measuring	-11780
▁concentrations	-11781
:19	-11782
\")	-11783
▁acres	-11784
ressive	-11785
▁spoken	-11786
▁Rh	-11787
iger	-11788
▁alive	-11789
▁consec	-11790
▁simult	-11791
▁combine	-11792
bd	-11793
:**	-11794
idal	-11795
ieval	-11796
▁menu	-11797
▁routes	-11798
▁reaching	-11799
▁restricted	-11800
▁Engineering	-11801
cies	-11802
▁Ken	-11803
▁sympy	-11804
▁Hospital	-11805
▁regarded	-11806
▁libraries	-11807
10,	-11808
▁Li	-11809
boot	-11810
▁Bul	-11811
▁Lev	-11812
atten	-11813
▁meals	-11814
Container	-11815
▁interior	-11816
▁lifetime	-11817
('-	-11818
Bas	-11819
oga	-11820
▁((	-11821
DATE	-11822
ENCE	-11823
asant	-11824
south	-11825
▁polar	-11826
▁thermal	-11827
▁evaluated	-11828
lesh	-11829
▁Princ	-11830
▁rotation	-11831
▁excessive	-11832
▁administrative	-11833
▁Az	-11834
atar	-11835
icular	-11836
mapping	-11837
▁Having	-11838
▁fraction	-11839
qs	-11840
166	-11841
ckets	-11842
▁Cond	-11843
▁Gulf	-11844
▁compos	-11845
sylvania	-11846
▁flexible	-11847
-31	-11848
▁TR	-11849
`.",	-11850
▁duty	-11851
suffix	-11852
▁Later	-11853
▁Building	-11854
%,	-11855
OUT	-11856
PLE	-11857
iro	-11858
HEAD	-11859
axes	-11860
RIGHT	-11861
▁weakness	-11862
▁documented	-11863
▁disabilities	-11864
2]	-11865
▁LE	-11866
▁RES	-11867
merge	-11868
▁curi	-11869
▁dump	-11870
family	-11871
▁ordinary	-11872
▁severity	-11873
▁Following	-11874
resentation	-11875
Dir	-11876
cop	-11877
ned	-11878
igue	-11879
wrap	-11880
▁(2,	-11881
▁Som	-11882
annual	-11883
hidden	-11884
▁Books	-11885
Argument	-11886
Tok	-11887
wan	-11888
cached	-11889
▁mouse	-11890
▁dropped	-11891
▁illegal	-11892
istributions	-11893
▁specification	-11894
LAN	-11895
else	-11896
▁12.	-11897
▁lic	-11898
ansas	-11899
steps	-11900
▁rose	-11901
balance	-11902
▁thereby	-11903
DU	-11904
eu	-11905
COL	-11906
agic	-11907
▁ven	-11908
berry	-11909
▁argue	-11910
entries	-11911
targets	-11912
▁reveal	-11913
▁saving	-11914
▁Authors	-11915
▁hormone	-11916
ju	-11917
▁nice	-11918
▁Notes	-11919
▁deleg	-11920
▁oauth	-11921
▁paint	-11922
▁arrays	-11923
▁silver	-11924
▁victim	-11925
▁whites	-11926
cyclopedia	-11927
▁respiratory	-11928
eto	-11929
larg	-11930
▁(2)	-11931
▁190	-11932
▁tip	-11933
ursing	-11934
metrics	-11935
valence	-11936
▁flavor	-11937
Password	-11938
contents	-11939
▁computing	-11940
▁CloudFront	-11941
▁'')	-11942
imony	-11943
▁1234	-11944
▁Mock	-11945
▁ampl	-11946
▁Again	-11947
▁fleet	-11948
▁worst	-11949
▁sunlight	-11950
▁Forbidden	-11951
▁concluded	-11952
>',	-11953
RESS	-11954
also	-11955
rank	-11956
▁Tri	-11957
▁rooms	-11958
ritional	-11959
▁Univers	-11960
▁comprom	-11961
▁mothers	-11962
▁engineers	-11963
▁inflation	-11964
▁complications	-11965
_0	-11966
▁Vi	-11967
byte	-11968
cost	-11969
▁Has	-11970
Platform	-11971
▁accompan	-11972
▁innovative	-11973
:10.	-11974
neys	-11975
achus	-11976
▁1024	-11977
▁Short	-11978
▁bless	-11979
catalog	-11980
▁mirror	-11981
▁educators	-11982
▁personality	-11983
▁Christianity	-11984
(4	-11985
▁fats	-11986
minute	-11987
choices	-11988
orderby	-11989
▁recipe	-11990
redirect	-11991
▁insights	-11992
AU	-11993
▁1,000	-11994
century	-11995
▁moderate	-11996
▁Wikipedia	-11997
FS	-11998
Gen	-11999
avel	-12000
▁tob	-12001
▁fatty	-12002
▁Commons	-12003
▁stability	-12004
jar	-12005
holds	-12006
▁elder	-12007
▁embry	-12008
▁passes	-12009
▁Location	-12010
MD	-12011
_%	-12012
/',	-12013
0.0	-12014
jobs	-12015
▁Typ	-12016
▁gut	-12017
VERSION	-12018
▁rejected	-12019
▁nextPageToken	-12020
OO	-12021
tm	-12022
128	-12023
Tem	-12024
▁Queen	-12025
▁Father	-12026
▁stdout	-12027
▁Interest	-12028
▁acquired	-12029
▁learners	-12030
rh	-12031
about	-12032
aniel	-12033
rapeut	-12034
▁flash	-12035
angered	-12036
▁legacy	-12037
▁Angeles	-12038
▁ethical	-12039
▁annually	-12040
▁correspond	-12041
▁RNA	-12042
▁peoples	-12043
▁triangle	-12044
▁antibiotics	-12045
▁192	-12046
▁nic	-12047
▁batt	-12048
▁reply	-12049
▁repeat	-12050
▁volumes	-12051
▁overcome	-12052
▁restored	-12053
PEND	-12054
cury	-12055
utely	-12056
▁haven	-12057
subscri	-12058
▁flying	-12059
▁suscept	-12060
specified	-12061
▁HO	-12062
rele	-12063
▁1.5	-12064
▁weigh	-12065
amazonaws	-12066
▁determines	-12067
vt	-12068
hus	-12069
pez	-12070
Does	-12071
stri	-12072
▁Fred	-12073
Volume	-12074
▁Sunday	-12075
▁engines	-12076
▁--------	-12077
1"	-12078
▁VM	-12079
nets	-12080
▁Mot	-12081
▁Poly	-12082
▁abort	-12083
▁Survey	-12084
▁literacy	-12085
Throttling	-12086
▁candidate	-12087
▁recipient	-12088
▁initiative	-12089
▁unexpected	-12090
BM	-12091
▁Ha	-12092
▁foo	-12093
▁beat	-12094
library	-12095
▁Battle	-12096
networks	-12097
▁acceleration	-12098
▁manufacturer	-12099
.',	-12100
sha	-12101
▁da	-12102
▁lang	-12103
▁escap	-12104
dy	-12105
-]+	-12106
pdir	-12107
▁FROM	-12108
ogenic	-12109
▁Input	-12110
▁shoot	-12111
sources	-12112
▁harder	-12113
▁satisf	-12114
▁emotion	-12115
heel	-12116
▁dot	-12117
▁templates	-12118
▁Prevention	-12119
▁PDF	-12120
▁Eliz	-12121
Widget	-12122
▁advent	-12123
▁falling	-12124
▁Different	-12125
▁introduce	-12126
iva	-12127
▁Help	-12128
▁tong	-12129
ARNING	-12130
reason	-12131
ushing	-12132
▁Being	-12133
▁Details	-12134
▁cooling	-12135
LOC	-12136
gpu	-12137
▁ru	-12138
PROC	-12139
▁ZIP	-12140
abeth	-12141
▁Area	-12142
arange	-12143
cancel	-12144
▁membrane	-12145
processing	-12146
▁reasonable	-12147
wa	-12148
▁29,	-12149
writer	-12150
▁keeps	-12151
▁ranging	-12152
principal	-12153
▁manufacturers	-12154
▁65	-12155
2,2,	-12156
bean	-12157
▁bat	-12158
▁thr	-12159
▁merg	-12160
▁pipe	-12161
▁geometry	-12162
▁inclusive	-12163
Day	-12164
▁>>	-12165
▁preserved	-12166
Stat	-12167
▁Crit	-12168
verify	-12169
▁Hebrew	-12170
▁autonom	-12171
▁settled	-12172
Instances	-12173
▁proposal	-12174
▁TARGETING	-12175
adel	-12176
prep	-12177
▁Obs	-12178
▁bare	-12179
urolog	-12180
ysical	-12181
onymous	-12182
▁autism	-12183
▁tobacco	-12184
▁ft	-12185
LINE	-12186
zoom	-12187
▁Ele	-12188
orate	-12189
visor	-12190
ulates	-12191
Current	-12192
itarian	-12193
▁utility	-12194
▁connector	-12195
)/	-12196
ssl	-12197
▁Way	-12198
▁ETag	-12199
▁crew	-12200
kernel	-12201
▁programme	-12202
impl	-12203
▁EPA	-12204
▁hyd	-12205
▁Full	-12206
▁Solar	-12207
gorithms	-12208
gregation	-12209
USE	-12210
you	-12211
▁cv	-12212
▁edges	-12213
▁minimal	-12214
▁transmitted	-12215
mits	-12216
▁1999	-12217
▁Kenn	-12218
▁sale	-12219
boolean	-12220
napshots	-12221
▁websites	-12222
▁collective	-12223
ORK	-12224
cue	-12225
dem	-12226
▁cha	-12227
▁Basic	-12228
▁Domain	-12229
▁cancel	-12230
pageable	-12231
▁privacy	-12232
▁objectives	-12233
▁protective	-12234
▁threatened	-12235
RECT	-12236
ador	-12237
▁Ped	-12238
▁Week	-12239
usalem	-12240
▁variations	-12241
Sm	-12242
acon	-12243
▁DATA	-12244
▁adapted	-12245
generator	-12246
▁antioxid	-12247
▁calculation	-12248
300	-12249
Find	-12250
earing	-12251
▁Hawai	-12252
▁engaging	-12253
▁keywords	-12254
▁opposition	-12255
BA	-12256
oli	-12257
WORD	-12258
cient	-12259
▁Best	-12260
▁TikTok	-12261
▁acting	-12262
▁safely	-12263
▁Vitamin	-12264
▁disrupt	-12265
▁exciting	-12266
▁humanity	-12267
▁universities	-12268
4_	-12269
ipv	-12270
yer	-12271
▁towns	-12272
▁"500":	-12273
.5	-12274
throp	-12275
enames	-12276
iguous	-12277
▁COVID	-12278
endment	-12279
▁timezone	-12280
▁exploration	-12281
▁improvements	-12282
1'	-12283
]{4	-12284
▁Ohio	-12285
imension	-12286
▁Material	-12287
▁controller	-12288
sep	-12289
tim	-12290
▁(4	-12291
USED	-12292
▁lob	-12293
anted	-12294
antly	-12295
▁Real	-12296
▁stake	-12297
▁generic	-12298
▁Pennsylvania	-12299
->	-12300
▁Capt	-12301
▁mine	-12302
Logger	-12303
▁tumor	-12304
▁precise	-12305
▁Metadata	-12306
▁supplements	-12307
Fold	-12308
▁pip	-12309
basic	-12310
▁Stop	-12311
Metric	-12312
edelta	-12313
▁Often	-12314
▁achiev	-12315
▁discount	-12316
▁cryptocurrency	-12317
Child	-12318
enable	-12319
building	-12320
▁mixture	-12321
▁believes	-12322
▁nutrient	-12323
▁Configuration	-12324
147	-12325
▁cord	-12326
Reminder	-12327
▁ensuring	-12328
▁incorrect	-12329
▁candidates	-12330
▁hypothesis	-12331
▁characteristic	-12332
asts	-12333
▁Lee	-12334
▁Always	-12335
▁cookie	-12336
▁grounds	-12337
investment	-12338
pus	-12339
eteor	-12340
pathy	-12341
▁Palest	-12342
▁cancers	-12343
important	-12344
▁vitamins	-12345
▁fee	-12346
ulator	-12347
▁rhyth	-12348
▁posted	-12349
▁fiction	-12350
▁holiday	-12351
▁operators	-12352
DIS	-12353
▁cas	-12354
itance	-12355
loader	-12356
xlarge	-12357
▁farms	-12358
▁Series	-12359
▁locate	-12360
▁killing	-12361
assistant	-12362
▁approval	-12363
▁hosp	-12364
▁dynamics	-12365
▁instruct	-12366
▁smallest	-12367
uv	-12368
HOP	-12369
ffe	-12370
Book	-12371
▁Bit	-12372
▁KMS	-12373
▁SER	-12374
▁ports	-12375
iplatform	-12376
▁packages	-12377
▁affecting	-12378
cn	-12379
cr	-12380
Aud	-12381
BUG	-12382
Too	-12383
UNT	-12384
▁185	-12385
▁Michigan	-12386
▁transmit	-12387
▁addiction	-12388
▁pageToken	-12389
artist	-12390
ometer	-12391
diction	-12392
▁metals	-12393
▁matched	-12394
▁suppress	-12395
▁researcher	-12396
▁determining	-12397
▁AttributeError	-12398
7/	-12399
north	-12400
Engine	-12401
▁Blood	-12402
▁grains	-12403
▁resist	-12404
▁conserv	-12405
AutoField	-12406
▁gathered	-12407
▁heritage	-12408
▁perceived	-12409
▁kilometers	-12410
FUN	-12411
They	-12412
ells	-12413
ategor	-12414
▁fires	-12415
▁gather	-12416
▁specim	-12417
▁Between	-12418
▁enormous	-12419
▁attempted	-12420
▁Historical	-12421
▁behavioral	-12422
▁derivative	-12423
payload	-12424
▁publish	-12425
▁sklearn	-12426
▁Colorado	-12427
▁followers	-12428
:5	-12429
▁Prop	-12430
▁"2022	-12431
ivities	-12432
62	-12433
NT	-12434
]):	-12435
mov	-12436
▁spray	-12437
achusetts	-12438
▁acceptable	-12439
DEF	-12440
comb	-12441
▁wat	-12442
empot	-12443
▁Drug	-12444
▁expr	-12445
▁argued	-12446
▁gradient	-12447
▁appointed	-12448
▁chemistry	-12449
▁committee	-12450
▁placement	-12451
PRESS	-12452
▁Fall	-12453
▁glac	-12454
▁Offic	-12455
▁exped	-12456
▁vessel	-12457
▁creatures	-12458
▁vegetation	-12459
▁consciousness	-12460
asma	-12461
▁Ham	-12462
ementia	-12463
▁cattle	-12464
▁classified	-12465
▁consisting	-12466
▁Authorization	-12467
4',	-12468
rtype	-12469
▁Turn	-12470
striction	-12471
▁Jerusalem	-12472
▁physically	-12473
AW	-12474
ruck	-12475
▁Tre	-12476
▁hem	-12477
▁NEXT	-12478
memory	-12479
▁gases	-12480
▁parad	-12481
▁tribes	-12482
▁raising	-12483
▁shouldn	-12484
chemy	-12485
named	-12486
▁Show	-12487
drives	-12488
articles	-12489
2",	-12490
PAR	-12491
likely	-12492
▁layout	-12493
▁modification	-12494
pin	-12495
▁Hard	-12496
duction	-12497
▁savings	-12498
▁Identity	-12499
▁focusing	-12500
▁districts	-12501
▁0.1	-12502
flush	-12503
▁1950	-12504
▁LIMIT	-12505
▁Third	-12506
▁buried	-12507
placement	-12508
▁Cambridge	-12509
ett	-12510
formed	-12511
▁Confed	-12512
▁fought	-12513
wikipedia	-12514
▁segments	-12515
▁Convention	-12516
▁180	-12517
▁deck	-12518
illion	-12519
coordin	-12520
▁longest	-12521
▁Economic	-12522
/#	-12523
▁sew	-12524
switch	-12525
▁cryst	-12526
article	-12527
▁Protocol	-12528
▁overwhel	-12529
Unavailable	-12530
hem	-12531
▁`/	-12532
▁255	-12533
apters	-12534
urches	-12535
▁myself	-12536
▁Wildlife	-12537
▁narrative	-12538
/>	-12539
▁`1	-12540
elem	-12541
Usage	-12542
stein	-12543
Origin	-12544
except	-12545
▁listMore	-12546
▁interventions	-12547
▁Hu	-12548
bial	-12549
lymp	-12550
▁DAM	-12551
▁COPY	-12552
▁trim	-12553
▁Clean	-12554
Meeting	-12555
▁Arctic	-12556
chemical	-12557
▁workbook	-12558
transaction	-12559
▁compatible	-12560
▁operationName	-12561
▁}}	-12562
aret	-12563
▁Ens	-12564
ether	-12565
Detail	-12566
allowed	-12567
▁Device	-12568
▁titles	-12569
ognition	-12570
▁grammar	-12571
▁thumbnail	-12572
dc	-12573
AGES	-12574
Proto	-12575
▁puzz	-12576
▁Linux	-12577
▁Santa	-12578
▁trick	-12579
twitter	-12580
▁genome	-12581
▁seller	-12582
▁drivers	-12583
▁FL	-12584
cule	-12585
ureau	-12586
▁fing	-12587
▁Trust	-12588
Include	-12589
▁trading	-12590
▁implicit	-12591
DT	-12592
zo	-12593
▁44	-12594
100,	-12595
share	-12596
▁subt	-12597
▁shorter	-12598
▁Minister	-12599
▁literary	-12600
▁Parliament	-12601
[\	-12602
▁Bol	-12603
iating	-12604
ository	-12605
▁legend	-12606
ocations	-12607
▁Creates	-12608
▁evening	-12609
▁hunting	-12610
▁seriously	-12611
▁ecological	-12612
▁geographical	-12613
▁Ra	-12614
▁],	-12615
▁2],	-12616
▁Dog	-12617
▁gif	-12618
▁Still	-12619
▁advis	-12620
▁labour	-12621
▁Abraham	-12622
▁Biology	-12623
▁Harvard	-12624
▁attitude	-12625
▁classical	-12626
dimensional	-12627
▁celebrated	-12628
▁SC	-12629
([1,	-12630
▁"--	-12631
escape	-12632
▁Albert	-12633
▁Massachusetts	-12634
DER	-12635
phinx	-12636
▁Norm	-12637
▁armed	-12638
encoded	-12639
▁Portug	-12640
▁chances	-12641
assertNot	-12642
▁technological	-12643
9)	-12644
'",	-12645
-30	-12646
12,	-12647
▁IO	-12648
LECT	-12649
▁plug	-12650
▁grain	-12651
friendly	-12652
▁existed	-12653
▁emerging	-12654
▁magnitude	-12655
▁interpreted	-12656
▁dress	-12657
abspath	-12658
▁Scotland	-12659
▁vaccines	-12660
▁disability	-12661
▁descriptions	-12662
tok	-12663
▁Ell	-12664
▁sail	-12665
astype	-12666
mitive	-12667
▁pixels	-12668
▁versus	-12669
▁deposit	-12670
▁promoting	-12671
▁controlling	-12672
▁sustainability	-12673
uns	-12674
who	-12675
▁BUT	-12676
▁lip	-12677
crets	-12678
roles	-12679
third	-12680
▁Rule	-12681
▁flav	-12682
Subnet	-12683
▁wheat	-12684
▁membership	-12685
Notification	-12686
La	-12687
Sk	-12688
ASH	-12689
▁ton	-12690
hosts	-12691
▁1998	-12692
icture	-12693
pezoid	-12694
▁ERROR	-12695
▁wider	-12696
Timeout	-12697
▁Master	-12698
▁quoted	-12699
LinkName	-12700
▁Element	-12701
▁classic	-12702
▁origins	-12703
▁Alexander	-12704
DateTimeField	-12705
▁biodiversity	-12706
▁establishment	-12707
▁Saint	-12708
▁aimed	-12709
▁coron	-12710
▁delta	-12711
▁Pakistan	-12712
▁particle	-12713
Encryption	-12714
%7	-12715
imp	-12716
logs	-12717
void	-12718
▁hat	-12719
shift	-12720
▁slice	-12721
▁evident	-12722
▁streets	-12723
▁qualified	-12724
2}	-12725
HS	-12726
anes	-12727
ethe	-12728
▁Kids	-12729
license	-12730
▁Multiple	-12731
▁callable	-12732
▁colonial	-12733
▁recycling	-12734
▁strategic	-12735
Unauthorized	-12736
DEC	-12737
▁1]	-12738
▁BY	-12739
Rules	-12740
imals	-12741
▁sorts	-12742
▁discour	-12743
▁conflicts	-12744
▁wonderful	-12745
▁everywhere	-12746
pick	-12747
▁suit	-12748
▁cyber	-12749
▁morph	-12750
science	-12751
▁exhibit	-12752
▁dramatic	-12753
▁habitats	-12754
▁constants	-12755
,)	-12756
=2,	-12757
egg	-12758
watch	-12759
▁scul	-12760
▁till	-12761
▁pilot	-12762
▁suite	-12763
▁urllib	-12764
▁painful	-12765
▁victory	-12766
▁Elizabeth	-12767
▁executive	-12768
jo	-12769
▁(5	-12770
orie	-12771
▁Wed	-12772
arded	-12773
▁deeply	-12774
ificates	-12775
▁Islands	-12776
▁Training	-12777
▁succeeded	-12778
▁deficiency	-12779
erts	-12780
marks	-12781
makers	-12782
▁Neuro	-12783
▁rendered	-12784
▁Laboratory	-12785
▁continuing	-12786
▁differently	-12787
YP	-12788
▁cn	-12789
uity	-12790
▁Ram	-12791
plies	-12792
onical	-12793
▁Guard	-12794
Payment	-12795
uscript	-12796
▁entering	-12797
▁managers	-12798
▁accompanied	-12799
▁replication	-12800
▁evolutionary	-12801
OPT	-12802
aded	-12803
▁sad	-12804
speed	-12805
▁mile	-12806
▁sevent	-12807
▁shaped	-12808
▁encountered	-12809
EV	-12810
mox	-12811
▁Hub	-12812
▁[3,	-12813
Agent	-12814
click	-12815
Period	-12816
▁Issue	-12817
▁completion	-12818
▁households	-12819
GER	-12820
gae	-12821
▁notion	-12822
▁generating	-12823
▁contributions	-12824
)])	-12825
KEN	-12826
alb	-12827
eed	-12828
▁Him	-12829
▁OUT	-12830
▁idx	-12831
worth	-12832
▁Need	-12833
Article	-12834
▁assemb	-12835
▁trauma	-12836
▁gravity	-12837
▁purchased	-12838
ko	-12839
stud	-12840
▁ion	-12841
▁Task	-12842
windows	-12843
▁quantum	-12844
▁holidays	-12845
▁ps	-12846
proc	-12847
▁Die	-12848
▁Navy	-12849
▁tort	-12850
ranean	-12851
▁2012.	-12852
istency	-12853
defaults	-12854
constants	-12855
▁withdraw	-12856
▁arbitrary	-12857
ErrorResponse	-12858
▁Fac	-12859
ashed	-12860
rigger	-12861
comments	-12862
▁literally	-12863
▁specialized	-12864
▁cardiovascular	-12865
../	-12866
psy	-12867
LOCK	-12868
▁600	-12869
▁cow	-12870
aware	-12871
▁cure	-12872
Public	-12873
season	-12874
▁Stream	-12875
▁DEFAULT	-12876
▁Writing	-12877
▁ordering	-12878
▁watching	-12879
▁assignments	-12880
-07	-12881
(200	-12882
anum	-12883
clip	-12884
▁shop	-12885
▁Within	-12886
▁hosted	-12887
▁themes	-12888
Extension	-12889
▁planting	-12890
Destination	-12891
▁ecosystems	-12892
▁quantities	-12893
▁installation	-12894
pie	-12895
▁mi	-12896
▁Stan	-12897
▁feels	-12898
Program	-12899
Contains	-12900
ilibrium	-12901
▁receives	-12902
▁resistant	-12903
▁orientation	-12904
nc	-12905
▁Rab	-12906
▁ans	-12907
▁Corn	-12908
▁boat	-12909
▁elig	-12910
uminum	-12911
▁colony	-12912
▁colonies	-12913
▁virtually	-12914
cha	-12915
dims	-12916
plib	-12917
▁187	-12918
▁NOTE	-12919
▁gran	-12920
▁fuels	-12921
▁Spirit	-12922
partition	-12923
▁Similarly	-12924
Distribution	-12925
"'	-12926
("/	-12927
-1.	-12928
fmt	-12929
▁sends	-12930
▁Django	-12931
▁accord	-12932
▁movies	-12933
▁balanced	-12934
▁apparently	-12935
front	-12936
assign	-12937
▁shore	-12938
▁cotton	-12939
▁violent	-12940
▁accessed	-12941
▁nutritional	-12942
hea	-12943
▁11.	-12944
▁Adam	-12945
▁"1"},	-12946
▁minim	-12947
▁throw	-12948
olutely	-12949
▁stones	-12950
▁actively	-12951
(('	-12952
WIT	-12953
▁Van	-12954
▁Pain	-12955
▁herb	-12956
branch	-12957
▁Major	-12958
▁couldn	-12959
▁prayer	-12960
modified	-12961
▁Provide	-12962
attachment	-12963
▁Secretary	-12964
▁facilitate	-12965
▁nextLinkName	-12966
:4	-12967
jpg	-12968
aver	-12969
▁packet	-12970
nextLink	-12971
istributed	-12972
▁horizontal	-12973
▁remarkable	-12974
▁investigate	-12975
▁functionality	-12976
DES	-12977
]['	-12978
cin	-12979
▁kw	-12980
ascii	-12981
birth	-12982
uther	-12983
▁gent	-12984
▁soph	-12985
▁solving	-12986
▁tolerance	-12987
law	-12988
▁Fa	-12989
ktop	-12990
▁101	-12991
▁emp	-12992
▁tow	-12993
▁Tree	-12994
▁inch	-12995
▁obst	-12996
choice	-12997
▁digit	-12998
▁Elastic	-12999
▁clothes	-13000
▁indirect	-13001
▁guarantee	-13002
▁achievement	-13003
)).	-13004
▁oxid	-13005
▁tone	-13006
▁surge	-13007
virtual	-13008
▁Senate	-13009
▁Islamic	-13010
▁Individual	-13011
▁aggressive	-13012
▁productivity	-13013
Authentication	-13014
Uri	-13015
awa	-13016
itled	-13017
▁Eval	-13018
Fields	-13019
strings	-13020
▁convey	-13021
▁unlike	-13022
▁passion	-13023
▁scenario	-13024
▁societies	-13025
▁volunteers	-13026
▁associations	-13027
▁pill	-13028
failed	-13029
should	-13030
▁bases	-13031
▁resil	-13032
zipcode	-13033
▁relating	-13034
▁verification	-13035
)(	-13036
▁55	-13037
glob	-13038
▁Nob	-13039
▁Much	-13040
advant	-13041
▁crack	-13042
fulness	-13043
electric	-13044
▁descend	-13045
(20	-13046
INFO	-13047
Sort	-13048
hass	-13049
seud	-13050
▁1))	-13051
cross	-13052
▁Self	-13053
estock	-13054
irable	-13055
▁atoms	-13056
▁capac	-13057
▁judge	-13058
▁orange	-13059
▁Mexican	-13060
▁Related	-13061
▁pending	-13062
▁surprise	-13063
dependence	-13064
las	-13065
▁[0.	-13066
utron	-13067
▁Gall	-13068
olving	-13069
▁Array	-13070
▁annot	-13071
▁lungs	-13072
▁visits	-13073
▁Runtime	-13074
▁dependencies	-13075
▁compatibility	-13076
TL	-13077
▁pH	-13078
▁bene	-13079
▁representative	-13080
▁mic	-13081
▁Track	-13082
rencies	-13083
▁varies	-13084
▁xrange	-13085
aracters	-13086
▁telling	-13087
eve	-13088
try	-13089
▁13.	-13090
▁Core	-13091
▁rent	-13092
signal	-13093
ometric	-13094
▁Korean	-13095
▁Script	-13096
▁LIMITED	-13097
▁batteries	-13098
▁chocolate	-13099
▁dependency	-13100
▁Agriculture	-13101
ACH	-13102
▁ali	-13103
reement	-13104
▁sacred	-13105
1/{	-13106
7).	-13107
KNO	-13108
bage	-13109
▁Joh	-13110
▁Mur	-13111
▁WHO	-13112
multiple	-13113
▁fatigue	-13114
▁wearing	-13115
▁inherited	-13116
▁searching	-13117
▁photographs	-13118
▁Ide	-13119
▁vap	-13120
urable	-13121
▁beans	-13122
▁noteb	-13123
natural	-13124
▁degrad	-13125
▁subset	-13126
▁optimal	-13127
organization	-13128
0:	-13129
ols	-13130
elen	-13131
▁begun	-13132
▁occas	-13133
▁drinks	-13134
▁frames	-13135
Performs	-13136
▁polygon	-13137
ordination	-13138
▁definitely	-13139
▁engagement	-13140
▁atom	-13141
verted	-13142
▁Olymp	-13143
▁oblig	-13144
▁pione	-13145
▁corresponds	-13146
Enum	-13147
posing	-13148
▁chose	-13149
devices	-13150
▁Philipp	-13151
▁reaches	-13152
Aiplatform	-13153
▁continent	-13154
AiplatformV	-13155
/4	-13156
lias	-13157
▁Fib	-13158
▁Mid	-13159
▁Sus	-13160
Tuple	-13161
ework	-13162
▁Chief	-13163
▁urine	-13164
closure	-13165
▁wouldn	-13166
ifically	-13167
Principal	-13168
▁transferred	-13169
MB	-13170
iner	-13171
mach	-13172
mann	-13173
charg	-13174
folio	-13175
▁coat	-13176
▁hack	-13177
▁sees	-13178
▁torn	-13179
▁Hence	-13180
▁Names	-13181
▁chron	-13182
▁winds	-13183
History	-13184
bid	-13185
▁Ga	-13186
ATER	-13187
inos	-13188
▁Far	-13189
Stats	-13190
uated	-13191
terior	-13192
▁stood	-13193
▁episode	-13194
▁profiles	-13195
management	-13196
▁qualities	-13197
▁capability	-13198
cfg	-13199
▁(%	-13200
oids	-13201
▁denied	-13202
commands	-13203
▁speaker	-13204
▁excluded	-13205
▁complexity	-13206
ICT	-13207
▁sha	-13208
▁ease	-13209
▁Tests	-13210
▁Title	-13211
▁aging	-13212
▁promise	-13213
▁unlikely	-13214
CRIP	-13215
blue	-13216
▁_('	-13217
▁susp	-13218
Simple	-13219
▁remind	-13220
▁transit	-13221
ologically	-13222
▁ancestors	-13223
▁reflected	-13224
.4	-13225
9-	-13226
Bal	-13227
▁"6	-13228
▁XX	-13229
inet	-13230
▁gly	-13231
asset	-13232
▁THIS	-13233
▁Turk	-13234
▁prey	-13235
▁basket	-13236
▁kingdom	-13237
chi	-13238
hum	-13239
pres	-13240
seen	-13241
aints	-13242
calls	-13243
ceans	-13244
kings	-13245
▁Game	-13246
▁span	-13247
▁anger	-13248
healthy	-13249
Operator	-13250
▁officer	-13251
▁occupied	-13252
▁sampling	-13253
']),	-13254
▁Cub	-13255
__.__	-13256
▁Farm	-13257
▁dies	-13258
▁spinal	-13259
rapeutic	-13260
▁welfare	-13261
▁confusion	-13262
▁activation	-13263
NUM	-13264
▁1930	-13265
▁hits	-13266
▁repr	-13267
ateral	-13268
itches	-13269
▁Lists	-13270
▁spots	-13271
izational	-13272
▁Symptoms	-13273
▁defining	-13274
▁earthquake	-13275
▁meaningful	-13276
eph	-13277
ptr	-13278
▁SK	-13279
▁(3,	-13280
▁Nov	-13281
▁Item	-13282
▁tack	-13283
▁tape	-13284
worker	-13285
▁Antar	-13286
▁fifth	-13287
▁neurons	-13288
▁refused	-13289
▁threads	-13290
▁sciences	-13291
assertAllEqual	-13292
3).	-13293
ARCH	-13294
done	-13295
risk	-13296
regon	-13297
▁ears	-13298
cookie	-13299
forced	-13300
▁spoke	-13301
▁losing	-13302
▁landing	-13303
signature	-13304
▁Clinical	-13305
▁breaking	-13306
dn	-13307
Main	-13308
uning	-13309
▁Fish	-13310
Prefix	-13311
▁dairy	-13312
istence	-13313
▁buying	-13314
▁dtypes	-13315
▁Channel	-13316
▁infants	-13317
▁triggered	-13318
ErrorException	-13319
oT	-13320
404	-13321
ifer	-13322
▁Six	-13323
▁hal	-13324
PLIED	-13325
profit	-13326
▁bleeding	-13327
5_	-13328
:]	-13329
aka	-13330
typ	-13331
▁rh	-13332
▁Bio	-13333
▁cig	-13334
▁0.",	-13335
▁Kent	-13336
▁anticip	-13337
▁publisher	-13338
▁requiring	-13339
BER	-13340
COMM	-13341
mega	-13342
▁Grad	-13343
▁gear	-13344
forest	-13345
program	-13346
▁heaven	-13347
operator	-13348
▁suicide	-13349
▁Testament	-13350
▁migrations	-13351
BooleanField	-13352
)",	-13353
Est	-13354
dump	-13355
ptive	-13356
▁pace	-13357
▁Block	-13358
▁Moses	-13359
▁sodium	-13360
▁weekly	-13361
perature	-13362
▁readily	-13363
▁lighting	-13364
▁encounter	-13365
▁psychology	-13366
lr	-13367
rif	-13368
enda	-13369
▁bom	-13370
▁tap	-13371
▁Meta	-13372
▁reef	-13373
Person	-13374
apideck	-13375
customer	-13376
▁municipal	-13377
fly	-13378
borne	-13379
blocks	-13380
rounds	-13381
▁dating	-13382
▁scalar	-13383
learning	-13384
ographer	-13385
▁rolling	-13386
▁involvement	-13387
▁Introduction	-13388
ResourceScopes	-13389
▁178	-13390
▁cheap	-13391
▁realm	-13392
▁pollut	-13393
▁superv	-13394
timezone	-13395
▁invention	-13396
ARB	-13397
xis	-13398
ROUP	-13399
▁"1"	-13400
KNOWN	-13401
energy	-13402
▁poetry	-13403
GroupName	-13404
▁humidity	-13405
▁hospitals	-13406
▁ingredient	-13407
11,	-13408
hard	-13409
▁3],	-13410
▁buf	-13411
pairs	-13412
▁macro	-13413
fieldname	-13414
▁retention	-13415
dst	-13416
pal	-13417
olid	-13418
umatic	-13419
▁crown	-13420
▁irrig	-13421
▁clouds	-13422
▁faculty	-13423
▁choosing	-13424
▁occurrence	-13425
OD	-13426
occ	-13427
partial	-13428
00:00:00	-13429
▁Country	-13430
▁integral	-13431
▁designated	-13432
FailureException	-13433
Plan	-13434
freq	-13435
migr	-13436
▁pub	-13437
▁Rail	-13438
▁Mathe	-13439
▁spark	-13440
Database	-13441
▁charges	-13442
meth	-13443
▁buff	-13444
▁Think	-13445
▁epoch	-13446
pending	-13447
▁emerged	-13448
▁likelihood	-13449
BE	-13450
▁CT	-13451
lims	-13452
▁Gar	-13453
▁Lew	-13454
fname	-13455
▁2010,	-13456
ampaign	-13457
▁Computer	-13458
▁distinguish	-13459
asm	-13460
oop	-13461
atom	-13462
▁Occ	-13463
ABLED	-13464
hooks	-13465
▁adverse	-13466
▁barrier	-13467
▁barriers	-13468
▁developers	-13469
.),	-13470
rea	-13471
PREC	-13472
ilst	-13473
rait	-13474
▁Bot	-13475
agged	-13476
ouses	-13477
▁Near	-13478
boards	-13479
expression	-13480
▁compression	-13481
RAW	-13482
RNA	-13483
▁[(	-13484
half	-13485
clide	-13486
crypt	-13487
romium	-13488
▁2010.	-13489
▁crimes	-13490
▁Quality	-13491
▁Session	-13492
▁terminal	-13493
▁ultimate	-13494
▁accomplish	-13495
.:	-13496
cod	-13497
▁PH	-13498
▁ids	-13499
Bytes	-13500
Initial	-13501
western	-13502
▁Indones	-13503
▁develops	-13504
▁minimize	-13505
▁opinions	-13506
Pagination	-13507
▁spacecraft	-13508
SN	-13509
SEC	-13510
▁Arg	-13511
otypes	-13512
▁Option	-13513
▁Raises	-13514
▁unders	-13515
▁accounting	-13516
▁persistent	-13517
bour	-13518
▁Working	-13519
▁discussions	-13520
flu	-13521
java	-13522
▁Town	-13523
adelph	-13524
orient	-13525
ticker	-13526
▁reads	-13527
▁Vietnam	-13528
▁padding	-13529
============	-13530
PP	-13531
Fire	-13532
ICAL	-13533
Sets	-13534
Site	-13535
ongo	-13536
▁ham	-13537
CRIPT	-13538
00,000	-13539
itored	-13540
▁Daniel	-13541
▁divide	-13542
▁scales	-13543
▁throat	-13544
▁compass	-13545
▁Teachers	-13546
▁embedded	-13547
▁Encyclopedia	-13548
iac	-13549
maj	-13550
("""	-13551
▁joy	-13552
Hello	-13553
▁nick	-13554
▁puts	-13555
review	-13556
▁teens	-13557
▁vegetable	-13558
:[	-13559
dns	-13560
pad	-13561
▁40,	-13562
5,000	-13563
▁superior	-13564
operations	-13565
▁extracted	-13566
▁transformed	-13567
LC	-13568
hu	-13569
mond	-13570
arios	-13571
inois	-13572
Driver	-13573
▁juris	-13574
ounding	-13575
▁IMPLIED	-13576
▁Creative	-13577
▁Ministry	-13578
▁personnel	-13579
61	-13580
Big	-13581
cols	-13582
▁fis	-13583
Layer	-13584
isons	-13585
Plugin	-13586
▁tower	-13587
▁Market	-13588
training	-13589
▁compost	-13590
▁graduate	-13591
▁realized	-13592
▁wireless	-13593
▁competitive	-13594
!”	-13595
cov	-13596
▁UP	-13597
▁tz	-13598
ader	-13599
acles	-13600
fixed	-13601
▁1920	-13602
▁Case	-13603
▁bulk	-13604
arians	-13605
renced	-13606
▁Bureau	-13607
▁variant	-13608
▁wrapper	-13609
▁entertain	-13610
:`.	-13611
▁Ba	-13612
▁Ast	-13613
▁Imp	-13614
00000	-13615
QUIRE	-13616
▁regime	-13617
▁Station	-13618
▁chromos	-13619
▁inequal	-13620
▁annotation	-13621
▁adolescents	-13622
▁restriction	-13623
MAIN	-13624
▁cuts	-13625
▁Colon	-13626
▁arise	-13627
▁boxes	-13628
Managed	-13629
▁bought	-13630
templates	-13631
▁enhanced	-13632
▁basically	-13633
▁exploring	-13634
▁prescribed	-13635
▁consequence	-13636
ISE	-13637
▁HE	-13638
AUTH	-13639
▁Arts	-13640
▁ensures	-13641
▁numerical	-13642
▁perfectly	-13643
▁connecting	-13644
2'	-13645
Json	-13646
lope	-13647
▁lun	-13648
shaped	-13649
▁Level	-13650
▁legit	-13651
Already	-13652
Folders	-13653
mutable	-13654
plugins	-13655
▁tongue	-13656
▁diagram	-13657
▁herself	-13658
▁blockchain	-13659
SY	-13660
▁Jo	-13661
▁UV	-13662
iply	-13663
First	-13664
inline	-13665
▁guilt	-13666
▁behalf	-13667
▁tuples	-13668
▁scaling	-13669
▁screens	-13670
▁artifacts	-13671
▁agreements	-13672
Root	-13673
▁pad	-13674
consc	-13675
▁beam	-13676
▁cream	-13677
Success	-13678
pection	-13679
▁Entity	-13680
▁Student	-13681
▁dementia	-13682
sgi	-13683
iano	-13684
▁Dam	-13685
▁gods	-13686
▁appeal	-13687
▁Assessment	-13688
ifty	-13689
Exper	-13690
Space	-13691
▁pose	-13692
▁prox	-13693
▁repo	-13694
▁semi	-13695
▁Query	-13696
▁Greece	-13697
▁cycles	-13698
▁encode	-13699
▁sculpt	-13700
▁mammals	-13701
▁tension	-13702
▁firewall	-13703
▁exclusive	-13704
Vis	-13705
geo	-13706
disc	-13707
▁gray	-13708
▁Store	-13709
browser	-13710
▁estate	-13711
▁neural	-13712
▁fulfill	-13713
iterranean	-13714
▁celebrate	-13715
▁workplace	-13716
initializer	-13717
▁cooperation	-13718
▁CPU	-13719
▁Mess	-13720
▁Role	-13721
▁viral	-13722
methods	-13723
▁Andrew	-13724
▁mature	-13725
▁priest	-13726
▁pupils	-13727
▁Payment	-13728
userguide	-13729
developers	-13730
▁ascending	-13731
▁maxResults	-13732
▁),	-13733
zona	-13734
▁Isa	-13735
guard	-13736
overe	-13737
checks	-13738
Install	-13739
▁Rather	-13740
▁median	-13741
▁Mountain	-13742
▁assembly	-13743
▁swelling	-13744
("\	-13745
Des	-13746
lem	-13747
▁pi	-13748
argo	-13749
▁Bang	-13750
▁tact	-13751
TRIBUT	-13752
iblical	-13753
▁League	-13754
▁winner	-13755
▁developer	-13756
▁philosoph	-13757
▁elementary	-13758
▁developmental	-13759
6_	-13760
Hz	-13761
ITS	-13762
▁Os	-13763
▁Hit	-13764
▁yes	-13765
begin	-13766
▁dish	-13767
Minimum	-13768
adelphia	-13769
hostname	-13770
▁painted	-13771
▁Heritage	-13772
▁minority	-13773
▁operated	-13774
▁sleeping	-13775
▁paginated	-13776
Authorization	-13777
Sync	-13778
bury	-13779
▁abol	-13780
FORMAT	-13781
ounced	-13782
▁gross	-13783
▁steam	-13784
claimer	-13785
icating	-13786
written	-13787
Generate	-13788
▁beneath	-13789
▁surveys	-13790
Analytics	-13791
▁invasion	-13792
▁statistical	-13793
}"	-13794
kel	-13795
1.0,	-13796
tail	-13797
umes	-13798
▁hass	-13799
Integr	-13800
ackson	-13801
urllib	-13802
▁Peace	-13803
returns	-13804
▁varied	-13805
▁reflects	-13806
▁complement	-13807
▁immigrants	-13808
:1	-13809
PDF	-13810
▁39	-13811
chunk	-13812
esium	-13813
▁Oregon	-13814
▁burden	-13815
▁robust	-13816
▁enjoyed	-13817
▁handled	-13818
▁reveals	-13819
conscious	-13820
▁circular	-13821
hl	-13822
icul	-13823
▁Hun	-13824
▁fan	-13825
▁clay	-13826
▁sons	-13827
issipp	-13828
reated	-13829
▁Century	-13830
▁omitted	-13831
▁Diabetes	-13832
▁precisely	-13833
▁circulation	-13834
▁inhabitants	-13835
000,	-13836
ropy	-13837
▁MIT	-13838
▁Risk	-13839
▁proc	-13840
▁trav	-13841
ACTIVE	-13842
social	-13843
▁EVENT	-13844
▁penet	-13845
clidean	-13846
▁builder	-13847
▁Generate	-13848
▁suddenly	-13849
▁Understanding	-13850
RC	-13851
xe	-13852
:||	-13853
▁3.0	-13854
brand	-13855
icted	-13856
suite	-13857
▁uint	-13858
assium	-13859
centage	-13860
records	-13861
Position	-13862
▁POINTER	-13863
▁Questions	-13864
▁accurately	-13865
▁reflection	-13866
▁restoration	-13867
BD	-13868
hire	-13869
rase	-13870
▁Hem	-13871
OData	-13872
▁calib	-13873
▁Future	-13874
▁funded	-13875
chnology	-13876
▁PROVIDER	-13877
▁collapse	-13878
▁promotion	-13879
▁addressing	-13880
LimitExceeded	-13881
****************	-13882
EA	-13883
TERN	-13884
%22%3	-13885
STATE	-13886
▁turb	-13887
▁dimin	-13888
▁frust	-13889
basename	-13890
▁Members	-13891
▁gardens	-13892
▁frequencies	-13893
``,	-13894
▁EM	-13895
▁Relig	-13896
▁devast	-13897
▁grades	-13898
▁impair	-13899
component	-13900
▁Teaching	-13901
▁churches	-13902
▁intellig	-13903
▁villages	-13904
▁corporate	-13905
▁databases	-13906
▁expanding	-13907
▁nextToken	-13908
aki	-13909
▁Ni	-13910
▁Fed	-13911
▁_("	-13912
▁fur	-13913
ospel	-13914
▁2001	-13915
▁Bern	-13916
Active	-13917
Matrix	-13918
enders	-13919
▁lingu	-13920
▁incent	-13921
▁noticed	-13922
▁Particip	-13923
▁advances	-13924
▁separation	-13925
▁developments	-13926
3),	-13927
▁/>	-13928
▁Ont	-13929
Exist	-13930
onaut	-13931
▁bonds	-13932
▁tumors	-13933
▁Emperor	-13934
▁varying	-13935
▁incidence	-13936
▁integrity	-13937
cv	-13938
16.	-13939
IEW	-13940
agers	-13941
emies	-13942
▁Below	-13943
▁hybrid	-13944
statement	-13945
▁displays	-13946
▁streaming	-13947
▁transplant	-13948
▁alternatives	-13949
(["	-13950
bat	-13951
▁NY	-13952
rous	-13953
▁persu	-13954
DoesNot	-13955
▁equity	-13956
▁joints	-13957
▁arrival	-13958
▁simulation	-13959
▁appointment	-13960
:'	-13961
48,	-13962
six	-13963
▁RO	-13964
John	-13965
ighth	-13966
ottom	-13967
plane	-13968
▁URLs	-13969
▁rays	-13970
Display	-13971
▁cooper	-13972
▁courts	-13973
▁expertise	-13974
▁Mediterranean	-13975
▁rod	-13976
▁2002	-13977
▁Guid	-13978
▁orth	-13979
▁cable	-13980
▁peers	-13981
regions	-13982
▁stocks	-13983
▁planted	-13984
Directory	-13985
64,	-13986
pson	-13987
▁(17	-13988
▁-1,	-13989
flows	-13990
places	-13991
▁bench	-13992
▁timing	-13993
requency	-13994
strument	-13995
▁Initial	-13996
▁totally	-13997
▁Egyptian	-13998
▁hormones	-13999
▁merchant	-14000
▁synaptic	-14001
▁consuming	-14002
▁configurations	-14003
HA	-14004
▁Ak	-14005
▁MER	-14006
▁Mic	-14007
▁Answ	-14008
▁gest	-14009
▁cited	-14010
▁enthus	-14011
▁shutil	-14012
▁twelve	-14013
▁ndarray	-14014
▁isolation	-14015
▁Corporation	-14016
dg	-14017
INK	-14018
dag	-14019
NESS	-14020
burn	-14021
▁ash	-14022
▁Buddh	-14023
▁Month	-14024
▁Obama	-14025
▁Marine	-14026
▁Sustain	-14027
▁Illinois	-14028
▁elections	-14029
Row	-14030
She	-14031
hyd	-14032
may	-14033
▁Kh	-14034
▁Coo	-14035
▁pra	-14036
▁tied	-14037
general	-14038
▁Invest	-14039
INSTANCE	-14040
▁registry	-14041
▁indicator	-14042
=4	-14043
1')	-14044
▁(0	-14045
push	-14046
rink	-14047
olves	-14048
▁JzKet	-14049
▁Satur	-14050
▁wings	-14051
herlands	-14052
registry	-14053
▁entitled	-14054
▁50%	-14055
▁Nin	-14056
▁Decl	-14057
▁amino	-14058
▁stere	-14059
unknown	-14060
▁shadow	-14061
▁Testing	-14062
Component	-14063
▁surgical	-14064
▁distances	-14065
Put	-14066
SSL	-14067
ori	-14068
flat	-14069
▁Son	-14070
▁cul	-14071
▁Emer	-14072
builder	-14073
▁Temple	-14074
▁preparing	-14075
▁absolutely	-14076
CY	-14077
[0.	-14078
▁{})	-14079
STATUS	-14080
imeter	-14081
▁cough	-14082
▁subsid	-14083
▁carrier	-14084
UserGuide	-14085
▁specialist	-14086
cli	-14087
igm	-14088
umn	-14089
▁_,	-14090
Publ	-14091
food	-14092
odox	-14093
▁axes	-14094
▁Values	-14095
isations	-14096
positive	-14097
avelength	-14098
▁reasoning	-14099
▁Connection	-14100
!"	-14101
*.	-14102
That	-14103
brev	-14104
▁Ash	-14105
▁Anth	-14106
ouring	-14107
▁Grant	-14108
▁adjacent	-14109
▁identities	-14110
▁(“	-14111
ongs	-14112
▁vig	-14113
▁Diet	-14114
▁Clear	-14115
▁disag	-14116
Builder	-14117
Records	-14118
▁Others	-14119
▁copied	-14120
▁distant	-14121
▁LIABILITY	-14122
▁livestock	-14123
▁protocols	-14124
▁Mississipp	-14125
▁conjunction	-14126
▁initiatives	-14127
▁contributing	-14128
▁SU	-14129
Feed	-14130
exper	-14131
▁Consum	-14132
▁enzyme	-14133
▁markers	-14134
▁phrases	-14135
▁portions	-14136
▁explaining	-14137
▁distinction	-14138
wo	-14139
APP	-14140
actor	-14141
▁Bush	-14142
Events	-14143
▁Batch	-14144
▁juice	-14145
▁paying	-14146
iseconds	-14147
▁protest	-14148
▁Settings	-14149
▁reviewed	-14150
▁enforcement	-14151
▁recommendation	-14152
)],	-14153
elly	-14154
PRECATED	-14155
▁medicines	-14156
▁Scientific	-14157
▁imagination	-14158
hd	-14159
fac	-14160
via	-14161
▁Mrs	-14162
Video	-14163
ropol	-14164
wered	-14165
▁oils	-14166
Global	-14167
▁Story	-14168
▁Results	-14169
▁vectors	-14170
▁payments	-14171
▁profound	-14172
▁rainfall	-14173
Protection	-14174
▁creativity	-14175
uct	-14176
vae	-14177
▁SSL	-14178
▁kin	-14179
white	-14180
▁200,	-14181
reader	-14182
▁bears	-14183
▁films	-14184
Pattern	-14185
keywords	-14186
Worksheet	-14187
placeholder	-14188
▁algorithms	-14189
▁Philadelphia	-14190
:24	-14191
utc	-14192
Eval	-14193
▁Pred	-14194
necess	-14195
▁talks	-14196
Dataset	-14197
▁stabil	-14198
▁selling	-14199
▁Creation	-14200
population	-14201
▁paintings	-14202
▁authorized	-14203
▁assumptions	-14204
▁administrator	-14205
:2	-14206
BY	-14207
▁Afg	-14208
▁Nic	-14209
Total	-14210
ogens	-14211
oming	-14212
threads	-14213
▁Turkey	-14214
▁postal	-14215
▁Practice	-14216
▁resolved	-14217
▁attitudes	-14218
▁generates	-14219
AIN	-14220
ANS	-14221
imm	-14222
tar	-14223
iams	-14224
▁opens	-14225
▁precip	-14226
▁Schools	-14227
▁closing	-14228
Assignments	-14229
+'	-14230
▁$1	-14231
▁2),	-14232
▁Jack	-14233
astics	-14234
ursday	-14235
▁Photo	-14236
collect	-14237
▁analog	-14238
Messages	-14239
▁elevated	-14240
▁COPYRIGHT	-14241
▁attributed	-14242
▁prevalence	-14243
developerguide	-14244
El	-14245
)||	-14246
-0.	-14247
EUR	-14248
POS	-14249
▁-2	-14250
Track	-14251
▁disp	-14252
ynasty	-14253
▁remed	-14254
▁memories	-14255
▁manuscript	-14256
▁reproductive	-14257
.0/	-14258
600	-14259
Own	-14260
▁LIC	-14261
gmail	-14262
▁1995	-14263
Series	-14264
▁tends	-14265
▁phones	-14266
elements	-14267
▁Meanwhile	-14268
▁attractive	-14269
assertAllClose	-14270
-1]	-14271
▁5)	-14272
▁Ren	-14273
▁vot	-14274
▁calm	-14275
follow	-14276
uesday	-14277
atories	-14278
▁arrive	-14279
▁sister	-14280
▁thirty	-14281
▁Ancient	-14282
▁Reserve	-14283
▁revenue	-14284
▁Download	-14285
▁analyses	-14286
▁engineer	-14287
▁reputation	-14288
▁establishing	-14289
\.	-14290
omal	-14291
ucks	-14292
giene	-14293
ipals	-14294
uffle	-14295
▁2011.	-14296
▁Frame	-14297
▁grace	-14298
▁remem	-14299
▁stderr	-14300
▁electrons	-14301
▁regression	-14302
PV	-14303
789	-14304
ona	-14305
emed	-14306
ties	-14307
▁cave	-14308
▁Allah	-14309
127.0.0	-14310
symbols	-14311
▁Making	-14312
▁partially	-14313
▁popularity	-14314
▁calculations	-14315
6/	-14316
NU	-14317
19,	-14318
Bar	-14319
Top	-14320
etag	-14321
quee	-14322
inces	-14323
issue	-14324
▁vice	-14325
scores	-14326
▁Price	-14327
▁Types	-14328
youtube	-14329
▁Mother	-14330
▁metaph	-14331
latitude	-14332
▁globally	-14333
▁happiness	-14334
▁metabolism	-14335
▁philosopher	-14336
FIX	-14337
▁"`	-14338
bris	-14339
phal	-14340
▁LED	-14341
▁USD	-14342
▁nom	-14343
Score	-14344
raine	-14345
▁pets	-14346
▁wing	-14347
▁Daily	-14348
▁globe	-14349
▁Buddha	-14350
▁Theory	-14351
▁influences	-14352
▁possibilities	-14353
(3,	-14354
▁1.2	-14355
micro	-14356
Metrics	-14357
▁Active	-14358
▁employer	-14359
▁regulate	-14360
▁visiting	-14361
DAY	-14362
acl	-14363
aid	-14364
▁GP	-14365
▁vm	-14366
itic	-14367
▁FDA	-14368
metic	-14369
▁guest	-14370
CONTENT	-14371
recation	-14372
localhost	-14373
▁dialogue	-14374
isinstance	-14375
▁MaxResults	-14376
▁theoretical	-14377
bf	-14378
bow	-14379
▁(<	-14380
▁Er	-14381
▁FA	-14382
orer	-14383
▁Hig	-14384
▁Ott	-14385
▁Wis	-14386
▁bub	-14387
▁fant	-14388
▁valve	-14389
▁bundle	-14390
▁ctypes	-14391
▁plates	-14392
Transfer	-14393
getLogger	-14394
=["	-14395
lie	-14396
Team	-14397
eros	-14398
▁Pope	-14399
▁sync	-14400
▁Hindu	-14401
schedule	-14402
▁neglect	-14403
▁refresh	-14404
iteritems	-14405
▁assistant	-14406
▁lowercase	-14407
▁efficiently	-14408
▁implementing	-14409
TE	-14410
px	-14411
24,	-14412
ked	-14413
yst	-14414
HECK	-14415
arms	-14416
fare	-14417
engers	-14418
ertion	-14419
outing	-14420
▁Label	-14421
▁doors	-14422
ersions	-14423
▁payroll	-14424
quisition	-14425
▁reproduce	-14426
▁regulatory	-14427
ouri	-14428
▁gum	-14429
elist	-14430
▁inev	-14431
▁reign	-14432
REQUEST	-14433
▁invented	-14434
▁absorption	-14435
▁endangered	-14436
iop	-14437
lst	-14438
▁-=	-14439
Make	-14440
inja	-14441
▁bomb	-14442
▁Brain	-14443
▁Large	-14444
▁lakes	-14445
▁smell	-14446
▁packed	-14447
▁Virtual	-14448
effective	-14449
▁Constant	-14450
▁initiated	-14451
(10	-14452
01.	-14453
azz	-14454
▁lex	-14455
▁boot	-14456
▁nuts	-14457
▁Begin	-14458
▁Token	-14459
▁canal	-14460
▁excav	-14461
▁posit	-14462
Wrapper	-14463
monthly	-14464
▁absorb	-14465
▁Indigenous	-14466
▁conditional	-14467
▁consistency	-14468
nav	-14469
alks	-14470
itzer	-14471
▁bags	-14472
▁gate	-14473
imizer	-14474
ussian	-14475
▁ruled	-14476
▁shoes	-14477
conomic	-14478
issance	-14479
▁honest	-14480
▁cellular	-14481
▁featured	-14482
▁inserted	-14483
pkg	-14484
ATCH	-14485
isol	-14486
▁184	-14487
Using	-14488
▁sulf	-14489
▁Smart	-14490
▁wooden	-14491
▁citizen	-14492
▁contrad	-14493
▁suspect	-14494
▁digestive	-14495
▁suggesting	-14496
00"	-14497
aze	-14498
▁2.5	-14499
▁Hon	-14500
▁Sav	-14501
▁{},	-14502
▁1996	-14503
▁hung	-14504
▁mini	-14505
Vector	-14506
▁soils	-14507
Mapping	-14508
▁shield	-14509
▁Jackson	-14510
▁acquire	-14511
▁athletes	-14512
▁Nutrition	-14513
▁occasionally	-14514
▁<<	-14515
▁FI	-14516
▁Jr	-14517
Step	-14518
▁DEL	-14519
sales	-14520
▁poet	-14521
ologic	-14522
untary	-14523
▁arter	-14524
▁stops	-14525
]]"}}},	-14526
▁Muslims	-14527
▁wrapped	-14528
▁entrance	-14529
▁pageSize	-14530
▁democratic	-14531
▁enterprise	-14532
()]	-14533
isa	-14534
ULAR	-14535
orus	-14536
walk	-14537
▁Sem	-14538
▁sug	-14539
lined	-14540
oline	-14541
elease	-14542
▁beach	-14543
▁diets	-14544
▁scipy	-14545
angular	-14546
▁reserve	-14547
▁abandoned	-14548
▁allergies	-14549
▁alongside	-14550
▁hierarchy	-14551
▁Mississippi	-14552
▁atmospheric	-14553
18,	-14554
▁'{	-14555
ysql	-14556
▁Fore	-14557
▁dual	-14558
FAILED	-14559
▁bottle	-14560
▁divine	-14561
▁resemb	-14562
▁Primary	-14563
▁implies	-14564
▁confront	-14565
▁deposits	-14566
▁swimming	-14567
▁recovered	-14568
▁convenient	-14569
▁underground	-14570
▁simultaneously	-14571
FE	-14572
adv	-14573
pur	-14574
▁53	-14575
rose	-14576
arium	-14577
reach	-14578
▁seal	-14579
▁CODEC	-14580
▁aside	-14581
▁awarded	-14582
▁strange	-14583
▁welcome	-14584
▁Standards	-14585
▁productive	-14586
Organization	-14587
▁incorporate	-14588
250	-14589
gis	-14590
▁5:	-14591
▁Tax	-14592
▁Host	-14593
▁broke	-14594
imation	-14595
▁grants	-14596
▁Culture	-14597
▁verified	-14598
▁contamination	-14599
-14	-14600
6':	-14601
=2)	-14602
▁):	-14603
spot	-14604
▁Tay	-14605
▁CONT	-14606
nesday	-14607
▁Benef	-14608
▁Creek	-14609
WARNING	-14610
▁Ensure	-14611
▁altered	-14612
▁contacts	-14613
▁mistakes	-14614
▁disadvant	-14615
▁neighbors	-14616
▁collecting	-14617
▁constraint	-14618
▁practition	-14619
▁flexibility	-14620
Foo	-14621
oca	-14622
▁SS	-14623
WORK	-14624
__()	-14625
▁Tib	-14626
mount	-14627
employ	-14628
helper	-14629
issing	-14630
verter	-14631
faction	-14632
▁Animal	-14633
▁elderly	-14634
▁inherent	-14635
▁somewhere	-14636
▁discipline	-14637
▁susceptible	-14638
MAN	-14639
nia	-14640
▁43	-14641
▁Oil	-14642
After	-14643
hicle	-14644
▁Zone	-14645
▁intr	-14646
present	-14647
▁outdoor	-14648
▁Netherlands	-14649
▁organisation	-14650
erk	-14651
Copy	-14652
asses	-14653
▁10,000	-14654
▁Philos	-14655
▁Certain	-14656
▁medieval	-14657
▁speakers	-14658
▁utilized	-14659
Descriptor	-14660
▁spreading	-14661
81	-14662
!!!!	-14663
Life	-14664
what	-14665
▁ACT	-14666
▁Arm	-14667
▁CDC	-14668
▁tomb	-14669
Parent	-14670
secure	-14671
▁2009.	-14672
▁thrown	-14673
▁Transport	-14674
OLD	-14675
fair	-14676
▁Fair	-14677
▁uniqu	-14678
rollment	-14679
▁setattr	-14680
▁outstanding	-14681
25.	-14682
DEX	-14683
tent	-14684
Media	-14685
there	-14686
▁Null	-14687
gateway	-14688
contains	-14689
fixtures	-14690
ordering	-14691
▁correlation	-14692
▁img	-14693
cases	-14694
▁oste	-14695
▁parsing	-14696
▁conclusions	-14697
(5	-14698
00\	-14699
]{12	-14700
Nodes	-14701
emale	-14702
itate	-14703
Intent	-14704
erness	-14705
school	-14706
▁Graph	-14707
▁eleph	-14708
▁trail	-14709
▁perpet	-14710
existing	-14711
▁chicken	-14712
▁lecture	-14713
▁alphabet	-14714
▁outbreak	-14715
▁workshop	-14716
▁systematic	-14717
.-	-14718
Cor	-14719
RED	-14720
sin	-14721
▁NS	-14722
empl	-14723
button	-14724
▁2012,	-14725
▁Broad	-14726
▁Sleep	-14727
▁doses	-14728
▁Living	-14729
▁Arizona	-14730
▁compress	-14731
▁pleasure	-14732
Middleware	-14733
dependencies	-14734
onenoteSection	-14735
ela	-14736
CEPT	-14737
▁Sort	-14738
▁wash	-14739
▁"1234	-14740
▁tomat	-14741
ICATION	-14742
pectives	-14743
▁thyroid	-14744
middleware	-14745
▁arthritis	-14746
▁phenomena	-14747
▁synthetic	-14748
▁fascinating	-14749
▁participating	-14750
[0,	-14751
ptic	-14752
▁Gra	-14753
nested	-14754
pended	-14755
▁hopes	-14756
▁outline	-14757
▁texture	-14758
▁webhook	-14759
▁adoption	-14760
▁alphanum	-14761
▁illnesses	-14762
▁producers	-14763
rv	-14764
/')	-14765
_2_	-14766
▁ov	-14767
▁Dry	-14768
human	-14769
quiry	-14770
isticated	-14771
Deployment	-14772
▁participant	-14773
}'	-14774
thur	-14775
▁PhD	-14776
▁cyl	-14777
▁wars	-14778
editor	-14779
iative	-14780
▁diarr	-14781
▁grams	-14782
▁Afghan	-14783
▁borrow	-14784
generated	-14785
▁molecule	-14786
▁releases	-14787
▁dramatically	-14788
Car	-14789
▁kg	-14790
Edit	-14791
oths	-14792
phones	-14793
failure	-14794
▁LICENSE	-14795
▁baseline	-14796
▁compiler	-14797
Association	-14798
▁pesticides	-14799
▁accidentally	-14800
)</	-14801
baz	-14802
een	-14803
oir	-14804
dess	-14805
▁Jup	-14806
▁Rub	-14807
▁soy	-14808
Style	-14809
▁knee	-14810
▁wrap	-14811
▁eaten	-14812
▁Assembly	-14813
▁failures	-14814
▁publicly	-14815
ADD	-14816
eff	-14817
exe	-14818
gra	-14819
▁Kn	-14820
▁Chi	-14821
▁Mes	-14822
▁rib	-14823
Float	-14824
▁Orth	-14825
▁mesh	-14826
▁trem	-14827
▁"0"},	-14828
▁Trade	-14829
▁Boolean	-14830
▁contexts	-14831
▁consistently	-14832
▁independently	-14833
ti	-14834
)."	-14835
Exp	-14836
__":	-14837
▁FIT	-14838
▁bee	-14839
▁Radio	-14840
▁tries	-14841
ingency	-14842
▁Credit	-14843
▁Private	-14844
▁locally	-14845
▁enabling	-14846
▁judgment	-14847
▁referring	-14848
▁motivation	-14849
Em	-14850
Za	-14851
gly	-14852
tor	-14853
enza	-14854
hend	-14855
ifact	-14856
flight	-14857
ridges	-14858
Predict	-14859
Windows	-14860
console	-14861
limited	-14862
▁retail	-14863
sensitive	-14864
▁subclass	-14865
▁synchron	-14866
▁activated	-14867
▁monitored	-14868
arks	-14869
▁"",	-14870
▁Jon	-14871
dummy	-14872
erves	-14873
Figure	-14874
Remove	-14875
priate	-14876
▁skelet	-14877
▁yields	-14878
readable	-14879
▁neurolog	-14880
don	-14881
mill	-14882
▁Sud	-14883
Sched	-14884
▁diam	-14885
▁perf	-14886
▁champ	-14887
Destiny	-14888
earches	-14889
▁absent	-14890
protobuf	-14891
▁structured	-14892
DoesNotExist	-14893
▁residential	-14894
mul	-14895
']"}	-14896
bias	-14897
need	-14898
neum	-14899
zens	-14900
▁BSD	-14901
▁deer	-14902
######	-14903
▁Paper	-14904
▁algae	-14905
▁caller	-14906
▁partly	-14907
▁patent	-14908
compiler	-14909
▁"1"}}},	-14910
▁loading	-14911
▁processor	-14912
Definitions	-14913
▁combinations	-14914
▁incorporated	-14915
26,	-14916
ELD	-14917
_1_	-14918
▁Es	-14919
NECT	-14920
▁arc	-14921
EMENT	-14922
linked	-14923
▁Until	-14924
ordinary	-14925
▁injection	-14926
▁optionally	-14927
QuotaExceeded	-14928
capt	-14929
iors	-14930
▁Geo	-14931
FLAGS	-14932
urora	-14933
▁100%	-14934
▁shed	-14935
Buffer	-14936
posals	-14937
▁erect	-14938
▁Cluster	-14939
▁Gateway	-14940
▁kitchen	-14941
▁retriev	-14942
▁strains	-14943
precision	-14944
▁seasonal	-14945
▁employers	-14946
▁officially	-14947
AI	-14948
`)	-14949
ERY	-14950
php	-14951
too	-14952
deep	-14953
yard	-14954
▁Hay	-14955
▁odd	-14956
ynchron	-14957
▁oceans	-14958
▁disturb	-14959
clusively	-14960
▁telephone	-14961
LD	-14962
}\	-14963
▁NC	-14964
Patch	-14965
▁diag	-14966
flavor	-14967
▁2013.	-14968
▁Wales	-14969
▁onset	-14970
▁Alaska	-14971
▁empire	-14972
▁sectors	-14973
TARGETING	-14974
estimator	-14975
▁Behavior	-14976
▁allergic	-14977
▁organize	-14978
▁sediment	-14979
▁tutorial	-14980
▁Jefferson	-14981
▁extraction	-14982
▁surrounded	-14983
▁commitments	-14984
▁conversations	-14985
POSE	-14986
gage	-14987
▁clf	-14988
▁phy	-14989
CTYPE	-14990
▁Bull	-14991
▁aest	-14992
joined	-14993
exclude	-14994
gettext	-14995
▁Choose	-14996
▁Period	-14997
▁Record	-14998
▁cached	-14999
▁vacuum	-15000
business	-15001
▁colored	-15002
▁invited	-15003
▁abundant	-15004
▁refugees	-15005
Operations	-15006
▁subsequently	-15007
ski	-15008
▁MB	-15009
CODE	-15010
▁Lat	-15011
erator	-15012
▁brains	-15013
▁phases	-15014
eneration	-15015
▁Properties	-15016
was	-15017
▁Sab	-15018
▁ster	-15019
onacci	-15020
▁distort	-15021
▁operational	-15022
1(	-15023
cism	-15024
▁ALL	-15025
▁Box	-15026
▁Ray	-15027
▁Tro	-15028
rible	-15029
arness	-15030
▁Jones	-15031
▁Liber	-15032
▁Darwin	-15033
▁categor	-15034
▁Personal	-15035
▁surprised	-15036
▁translate	-15037
APIReference	-15038
GA	-15039
HR	-15040
MC	-15041
bn	-15042
gency	-15043
overs	-15044
▁Body	-15045
▁Mult	-15046
▁Lower	-15047
▁Poland	-15048
xxxxxxxx	-15049
▁deliber	-15050
Transform	-15051
Attachment	-15052
▁Directory	-15053
▁discharge	-15054
▁preference	-15055
=2	-15056
lp	-15057
ENG	-15058
bors	-15059
ugar	-15060
▁bills	-15061
▁loose	-15062
▁memor	-15063
▁margin	-15064
▁powder	-15065
requests	-15066
▁billing	-15067
longitude	-15068
Compliance	-15069
▁mutations	-15070
ARS	-15071
Ele	-15072
blob	-15073
unes	-15074
▁rab	-15075
▁2023	-15076
▁Iron	-15077
imedia	-15078
▁shade	-15079
dynamic	-15080
eteenth	-15081
ipients	-15082
velocity	-15083
▁blocked	-15084
▁cookies	-15085
▁offices	-15086
▁invasive	-15087
▁guaranteed	-15088
Subscription	-15089
▁consecutive	-15090
▁encouraging	-15091
gd	-15092
▁#:	-15093
▁WW	-15094
Some	-15095
pret	-15096
sock	-15097
virt	-15098
▁lets	-15099
▁pest	-15100
▁sole	-15101
▁firms	-15102
▁debris	-15103
▁favour	-15104
▁sheets	-15105
▁Parents	-15106
▁avoided	-15107
▁erosion	-15108
▁fitness	-15109
▁governed	-15110
:{	-15111
Bay	-15112
▁Cit	-15113
▁oct	-15114
▁sle	-15115
▁hurt	-15116
Offset	-15117
▁magic	-15118
▁speeds	-15119
▁Exercis	-15120
▁Spotify	-15121
▁microsc	-15122
▁runtime	-15123
▁shelter	-15124
▁chapters	-15125
▁provisions	-15126
']))	-15127
oler	-15128
▁"\\	-15129
14748	-15130
inery	-15131
▁Marg	-15132
▁tanks	-15133
reprene	-15134
▁Arabic	-15135
warnings	-15136
▁Usually	-15137
▁fingers	-15138
▁Knowledge	-15139
UTC	-15140
▁[0	-15141
Amount	-15142
Unknown	-15143
▁pharma	-15144
Business	-15145
▁football	-15146
▁notebook	-15147
probability	-15148
lc	-15149
ILD	-15150
PACK	-15151
inch	-15152
▁Flow	-15153
▁Greg	-15154
▁pale	-15155
itting	-15156
agnetic	-15157
density	-15158
illance	-15159
servers	-15160
▁Wilson	-15161
▁cheese	-15162
▁Tuesday	-15163
▁shallow	-15164
▁Question	-15165
▁iterator	-15166
▁striking	-15167
▁tempfile	-15168
tv	-15169
()):	-15170
Lear	-15171
▁Ali	-15172
▁SDK	-15173
VALUE	-15174
aired	-15175
▁drag	-15176
digest	-15177
semble	-15178
▁2011,	-15179
▁dried	-15180
▁Visual	-15181
▁Matthew	-15182
▁Unicode	-15183
▁reactor	-15184
[...]
